<pad>	0
<unk>	0
<s>	0
</s>	0
<0x00>	0
<0x01>	0
<0x02>	0
<0x03>	0
<0x04>	0
<0x05>	0
<0x06>	0
<0x07>	0
<0x08>	0
<0x09>	0
<0x0A>	0
<0x0B>	0
<0x0C>	0
<0x0D>	0
<0x0E>	0
<0x0F>	0
<0x10>	0
<0x11>	0
<0x12>	0
<0x13>	0
<0x14>	0
<0x15>	0
<0x16>	0
<0x17>	0
<0x18>	0
<0x19>	0
<0x1A>	0
<0x1B>	0
<0x1C>	0
<0x1D>	0
<0x1E>	0
<0x1F>	0
<0x20>	0
<0x21>	0
<0x22>	0
<0x23>	0
<0x24>	0
<0x25>	0
<0x26>	0
<0x27>	0
<0x28>	0
<0x29>	0
<0x2A>	0
<0x2B>	0
<0x2C>	0
<0x2D>	0
<0x2E>	0
<0x2F>	0
<0x30>	0
<0x31>	0
<0x32>	0
<0x33>	0
<0x34>	0
<0x35>	0
<0x36>	0
<0x37>	0
<0x38>	0
<0x39>	0
<0x3A>	0
<0x3B>	0
<0x3C>	0
<0x3D>	0
<0x3E>	0
<0x3F>	0
<0x40>	0
<0x41>	0
<0x42>	0
<0x43>	0
<0x44>	0
<0x45>	0
<0x46>	0
<0x47>	0
<0x48>	0
<0x49>	0
<0x4A>	0
<0x4B>	0
<0x4C>	0
<0x4D>	0
<0x4E>	0
<0x4F>	0
<0x50>	0
<0x51>	0
<0x52>	0
<0x53>	0
<0x54>	0
<0x55>	0
<0x56>	0
<0x57>	0
<0x58>	0
<0x59>	0
<0x5A>	0
<0x5B>	0
<0x5C>	0
<0x5D>	0
<0x5E>	0
<0x5F>	0
<0x60>	0
<0x61>	0
<0x62>	0
<0x63>	0
<0x64>	0
<0x65>	0
<0x66>	0
<0x67>	0
<0x68>	0
<0x69>	0
<0x6A>	0
<0x6B>	0
<0x6C>	0
<0x6D>	0
<0x6E>	0
<0x6F>	0
<0x70>	0
<0x71>	0
<0x72>	0
<0x73>	0
<0x74>	0
<0x75>	0
<0x76>	0
<0x77>	0
<0x78>	0
<0x79>	0
<0x7A>	0
<0x7B>	0
<0x7C>	0
<0x7D>	0
<0x7E>	0
<0x7F>	0
<0x80>	0
<0x81>	0
<0x82>	0
<0x83>	0
<0x84>	0
<0x85>	0
<0x86>	0
<0x87>	0
<0x88>	0
<0x89>	0
<0x8A>	0
<0x8B>	0
<0x8C>	0
<0x8D>	0
<0x8E>	0
<0x8F>	0
<0x90>	0
<0x91>	0
<0x92>	0
<0x93>	0
<0x94>	0
<0x95>	0
<0x96>	0
<0x97>	0
<0x98>	0
<0x99>	0
<0x9A>	0
<0x9B>	0
<0x9C>	0
<0x9D>	0
<0x9E>	0
<0x9F>	0
<0xA0>	0
<0xA1>	0
<0xA2>	0
<0xA3>	0
<0xA4>	0
<0xA5>	0
<0xA6>	0
<0xA7>	0
<0xA8>	0
<0xA9>	0
<0xAA>	0
<0xAB>	0
<0xAC>	0
<0xAD>	0
<0xAE>	0
<0xAF>	0
<0xB0>	0
<0xB1>	0
<0xB2>	0
<0xB3>	0
<0xB4>	0
<0xB5>	0
<0xB6>	0
<0xB7>	0
<0xB8>	0
<0xB9>	0
<0xBA>	0
<0xBB>	0
<0xBC>	0
<0xBD>	0
<0xBE>	0
<0xBF>	0
<0xC0>	0
<0xC1>	0
<0xC2>	0
<0xC3>	0
<0xC4>	0
<0xC5>	0
<0xC6>	0
<0xC7>	0
<0xC8>	0
<0xC9>	0
<0xCA>	0
<0xCB>	0
<0xCC>	0
<0xCD>	0
<0xCE>	0
<0xCF>	0
<0xD0>	0
<0xD1>	0
<0xD2>	0
<0xD3>	0
<0xD4>	0
<0xD5>	0
<0xD6>	0
<0xD7>	0
<0xD8>	0
<0xD9>	0
<0xDA>	0
<0xDB>	0
<0xDC>	0
<0xDD>	0
<0xDE>	0
<0xDF>	0
<0xE0>	0
<0xE1>	0
<0xE2>	0
<0xE3>	0
<0xE4>	0
<0xE5>	0
<0xE6>	0
<0xE7>	0
<0xE8>	0
<0xE9>	0
<0xEA>	0
<0xEB>	0
<0xEC>	0
<0xED>	0
<0xEE>	0
<0xEF>	0
<0xF0>	0
<0xF1>	0
<0xF2>	0
<0xF3>	0
<0xF4>	0
<0xF5>	0
<0xF6>	0
<0xF7>	0
<0xF8>	0
<0xF9>	0
<0xFA>	0
<0xFB>	0
<0xFC>	0
<0xFD>	0
<0xFE>	0
<0xFF>	0
▁t	-0
ng	-1
▁c	-2
nh	-3
▁đ	-4
▁ch	-5
▁h	-6
▁th	-7
▁m	-8
▁l	-9
▁v	-10
▁b	-11
▁k	-12
▁n	-13
▁s	-14
▁tr	-15
▁kh	-16
▁g	-17
▁nh	-18
▁ng	-19
ông	-20
anh	-21
▁d	-22
▁r	-23
▁là	-24
▁gi	-25
em	-26
▁p	-27
▁ph	-28
▁em	-29
▁không	-30
▁có	-31
iệ	-32
▁anh	-33
ên	-34
▁cá	-35
▁chị	-36
ồi	-37
qu	-38
▁qu	-39
▁ti	-40
▁rồi	-41
▁và	-42
ời	-43
ại	-44
ình	-45
ượ	-46
ày	-47
ới	-48
ủa	-49
▁x	-50
▁của	-51
ch	-52
ai	-53
ay	-54
ết	-55
uy	-56
▁mà	-57
ột	-58
▁cho	-59
▁nó	-60
ược	-61
▁ngh	-62
▁một	-63
ười	-64
▁được	-65
ao	-66
▁để	-67
ươ	-68
▁cái	-69
ất	-70
ong	-71
▁đó	-72
ôi	-73
ải	-74
▁này	-75
ân	-76
▁hà	-77
▁mình	-78
ền	-79
▁thì	-80
▁đi	-81
ạn	-82
ấy	-83
ăm	-84
ến	-85
ần	-86
an	-87
▁người	-88
ây	-89
ản	-90
án	-91
ang	-92
úng	-93
iện	-94
▁với	-95
▁to	-96
▁dạ	-97
▁số	-98
▁như	-99
▁đã	-100
ều	-101
▁giờ	-102
▁trong	-103
▁hàng	-104
ưa	-105
▁hai	-106
▁họ	-107
▁bạn	-108
iên	-109
âu	-110
ài	-111
▁lại	-112
ướ	-113
ững	-114
áng	-115
▁ạ	-116
ào	-117
▁bi	-118
▁thanh	-119
▁các	-120
ức	-121
▁những	-122
ận	-123
▁tôi	-124
ơn	-125
▁khá	-126
▁toán	-127
▁từ	-128
▁phải	-129
▁tiền	-130
ũng	-131
▁chí	-132
ương	-133
ước	-134
▁gì	-135
▁chưa	-136
▁cũng	-137
inh	-138
▁nói	-139
▁học	-140
▁làm	-141
ối	-142
▁công	-143
▁ho	-144
ươi	-145
iể	-146
▁đang	-147
áo	-148
ọi	-149
ành	-150
ội	-151
▁chỉ	-152
òn	-153
▁tại	-154
▁mươi	-155
ực	-156
▁bên	-157
▁thể	-158
ầu	-159
ườ	-160
▁sao	-161
▁kho	-162
▁việ	-163
ường	-164
ậy	-165
▁nhi	-166
▁khi	-167
▁phá	-168
▁cả	-169
iệu	-170
▁còn	-171
▁chuy	-172
au	-173
▁chi	-174
ữa	-175
ăng	-176
▁sẽ	-177
▁độ	-178
▁biết	-179
▁à	-180
▁ngày	-181
▁đến	-182
▁á	-183
▁vậy	-184
ồng	-185
▁đúng	-186
▁ra	-187
▁sự	-188
▁về	-189
àn	-190
▁đâu	-191
ơi	-192
ung	-193
ôn	-194
êu	-195
ếu	-196
▁năm	-197
am	-198
▁bả	-199
▁tin	-200
▁co	-201
ốn	-202
▁đóng	-203
▁gọi	-204
▁dụ	-205
ùng	-206
▁nhưng	-207
▁thế	-208
▁lu	-209
▁nào	-210
▁vào	-211
ăn	-212
▁chúng	-213
▁chứ	-214
▁mới	-215
▁tháng	-216
▁ta	-217
ật	-218
▁bây	-219
▁trăm	-220
▁sau	-221
ổi	-222
▁thành	-223
ôm	-224
▁nhiều	-225
al	-226
▁đồng	-227
▁qua	-228
▁thông	-229
▁thu	-230
▁hôm	-231
▁bị	-232
▁tí	-233
▁nay	-234
ắc	-235
▁nhà	-236
▁ba	-237
▁cu	-238
▁trả	-239
▁việc	-240
▁cần	-241
▁đầu	-242
▁ở	-243
▁mu	-244
âng	-245
▁báo	-246
▁mười	-247
▁khoản	-248
ển	-249
▁nghe	-250
▁chính	-251
âm	-252
▁quy	-253
ác	-254
▁trước	-255
▁luôn	-256
▁vì	-257
ập	-258
▁hội	-259
ẫn	-260
▁nhận	-261
ịch	-262
ỏi	-263
▁đây	-264
▁ngân	-265
eo	-266
▁hơn	-267
ìn	-268
alo	-269
▁hả	-270
▁tiế	-271
▁hiện	-272
úp	-273
▁o	-274
▁tu	-275
▁động	-276
▁thấy	-277
▁tài	-278
▁nghiệ	-279
▁sản	-280
▁nữa	-281
▁giúp	-282
▁điện	-283
in	-284
▁nếu	-285
▁tư	-286
▁dụng	-287
▁cơ	-288
▁khách	-289
ằng	-290
▁gia	-291
▁sá	-292
▁má	-293
▁ơi	-294
▁con	-295
ấp	-296
▁nha	-297
úc	-298
▁trên	-299
ấn	-300
▁y	-301
▁hay	-302
▁bảo	-303
ộc	-304
▁thôi	-305
▁nợ	-306
▁vâng	-307
▁liên	-308
ẩm	-309
▁chuyển	-310
ốc	-311
▁hỏi	-312
▁đị	-313
▁thi	-314
▁quan	-315
ạo	-316
▁cách	-317
ắn	-318
ặc	-319
▁nhất	-320
▁giá	-321
ống	-322
▁tâm	-323
▁hết	-324
▁ngay	-325
▁ok	-326
▁triệu	-327
ắt	-328
▁cảm	-329
▁ý	-330
ởng	-331
oại	-332
▁cứ	-333
▁lý	-334
▁đấy	-335
▁do	-336
▁nghìn	-337
ục	-338
iểu	-339
▁ki	-340
ừng	-341
▁năng	-342
▁phẩm	-343
ích	-344
▁trường	-345
ượng	-346
óa	-347
▁theo	-348
▁thời	-349
▁sống	-350
▁hệ	-351
ưu	-352
ửi	-353
▁trình	-354
àng	-355
▁giải	-356
òng	-357
▁máy	-358
ốt	-359
▁nhân	-360
ợp	-361
▁viên	-362
▁hợp	-363
ỗi	-364
▁quá	-365
▁lên	-366
ãy	-367
▁thực	-368
▁ờ	-369
▁cao	-370
▁phát	-371
▁nên	-372
▁tuy	-373
▁gửi	-374
▁gian	-375
▁nhá	-376
▁nam	-377
▁sinh	-378
▁bao	-379
iểm	-380
ạt	-381
ọng	-382
▁ví	-383
▁tự	-384
▁rất	-385
ện	-386
iệt	-387
▁vẫn	-388
▁ấy	-389
▁định	-390
▁kết	-391
▁phí	-392
▁chào	-393
▁sử	-394
▁alo	-395
ùm	-396
▁dự	-397
ọn	-398
▁cuộc	-399
▁điều	-400
▁trung	-401
▁thức	-402
▁mạ	-403
ặt	-404
▁ai	-405
út	-406
▁hãy	-407
▁tiếp	-408
▁cùng	-409
▁tạo	-410
▁tiên	-411
▁sáng	-412
▁dịch	-413
▁vay	-414
om	-415
▁mấy	-416
▁giới	-417
▁tế	-418
▁giả	-419
ọc	-420
ợi	-421
▁lớ	-422
▁muốn	-423
▁bộ	-424
▁xu	-425
ễn	-426
▁việt	-427
▁hạn	-428
ưởng	-429
▁khác	-430
▁trợ	-431
▁thoại	-432
▁phần	-433
▁hành	-434
▁lượng	-435
▁ơn	-436
▁bốn	-437
ừa	-438
▁vô	-439
▁kiểm	-440
▁tổ	-441
▁hóa	-442
▁tối	-443
▁đề	-444
▁vi	-445
▁nhanh	-446
▁bỏ	-447
▁vấn	-448
▁hiểu	-449
ám	-450
▁dân	-451
▁trọng	-452
▁nguy	-453
▁tra	-454
ảng	-455
▁hình	-456
▁quyết	-457
êm	-458
▁quốc	-459
en	-460
▁sở	-461
▁ừ	-462
▁kỳ	-463
▁hỗ	-464
▁minh	-465
▁toàn	-466
▁thị	-467
▁nghiệp	-468
omo	-469
▁momo	-470
▁pháp	-471
▁phong	-472
▁ngo	-473
▁an	-474
▁tính	-475
▁cô	-476
▁mỗi	-477
▁mua	-478
▁thứ	-479
▁đổi	-480
▁mai	-481
▁bé	-482
▁tới	-483
▁cấp	-484
▁tác	-485
▁ưu	-486
▁hoàn	-487
▁đừng	-488
ắng	-489
▁nước	-490
ái	-491
▁xin	-492
▁dùng	-493
▁bảy	-494
▁đối	-495
▁đại	-496
ảnh	-497
▁nghiệm	-498
▁chín	-499
ãi	-500
▁nhắn	-501
▁tay	-502
▁chuyện	-503
ệt	-504
▁bản	-505
▁khó	-506
▁giao	-507
ữu	-508
▁hữu	-509
ắm	-510
▁nè	-511
▁dư	-512
▁cầu	-513
▁vụ	-514
▁sáu	-515
▁bữa	-516
ầm	-517
ộng	-518
▁giáo	-519
ìm	-520
▁vừa	-521
▁khám	-522
▁hiệu	-523
▁chắc	-524
ánh	-525
ồn	-526
ứng	-527
▁cuối	-528
▁nghệ	-529
▁ông	-530
▁thẻ	-531
▁mang	-532
▁nghĩ	-533
▁bu	-534
▁bất	-535
▁mọi	-536
ểm	-537
▁vị	-538
▁điểm	-539
▁xong	-540
er	-541
iển	-542
▁lúc	-543
▁bắt	-544
▁tăng	-545
▁z	-546
▁chất	-547
▁lớn	-548
▁tìm	-549
▁hoặc	-550
▁a	-551
▁tám	-552
▁đơn	-553
▁thường	-554
▁su	-555
ấu	-556
▁đọc	-557
▁biệt	-558
▁thiết	-559
▁văn	-560
ạc	-561
▁yêu	-562
▁chọn	-563
▁lăm	-564
▁lần	-565
▁xem	-566
▁tuần	-567
▁chiều	-568
▁gh	-569
iền	-570
uyền	-571
▁rằng	-572
▁từng	-573
▁tiêu	-574
▁tập	-575
ẳng	-576
▁lời	-577
▁trải	-578
▁ủa	-579
▁mất	-580
▁quả	-581
ầng	-582
▁tình	-583
▁triển	-584
▁thủ	-585
▁doanh	-586
▁tranh	-587
▁nhiêu	-588
iệm	-589
▁vài	-590
▁zalo	-591
▁chủ	-592
▁tốt	-593
▁thống	-594
▁trở	-595
▁tiếng	-596
ách	-597
▁xã	-598
▁rõ	-599
▁coi	-600
▁lực	-601
▁ảnh	-602
▁lỡ	-603
▁chú	-604
▁câu	-605
▁kinh	-606
▁nhiên	-607
▁đường	-608
▁đình	-609
ướng	-610
▁gó	-611
▁quyền	-612
▁bán	-613
▁chiến	-614
ếp	-615
▁thương	-616
▁nội	-617
▁thân	-618
▁tín	-619
ởi	-620
▁khu	-621
▁tham	-622
▁phương	-623
▁lo	-624
▁bằng	-625
▁ngoài	-626
▁hồ	-627
▁thử	-628
▁lịch	-629
▁thêm	-630
▁kế	-631
▁màu	-632
óng	-633
▁nhớ	-634
▁đưa	-635
▁kỹ	-636
▁xác	-637
▁tuổi	-638
▁vu	-639
▁tương	-640
▁truyền	-641
▁đều	-642
ếm	-643
▁độc	-644
ầy	-645
▁lai	-646
▁lòng	-647
▁giảm	-648
▁mạnh	-649
▁sách	-650
▁duy	-651
▁đặc	-652
▁đăng	-653
ẩn	-654
▁di	-655
▁thay	-656
ẹn	-657
▁so	-658
▁phố	-659
ảo	-660
▁dẫn	-661
ho	-662
ượt	-663
▁căn	-664
▁thật	-665
▁chương	-666
▁án	-667
▁bài	-668
▁tức	-669
▁huy	-670
▁nhập	-671
ạch	-672
▁liệu	-673
ệnh	-674
▁ăn	-675
▁mặt	-676
ắp	-677
▁chỗ	-678
▁mở	-679
▁xử	-680
▁trị	-681
▁đo	-682
▁biến	-683
ẹp	-684
▁hướng	-685
ạm	-686
▁đủ	-687
▁nhờ	-688
▁vầng	-689
ậm	-690
▁hồi	-691
▁giùm	-692
▁lợi	-693
▁chung	-694
▁quý	-695
▁lâu	-696
▁thích	-697
▁ri	-698
▁trẻ	-699
▁ty	-700
▁tuyệt	-701
▁ban	-702
▁hẹn	-703
▁trí	-704
ặng	-705
▁đãi	-706
▁hộ	-707
▁tổng	-708
êng	-709
ạng	-710
▁tên	-711
▁xếp	-712
▁bình	-713
▁chức	-714
▁lương	-715
▁lấy	-716
▁sức	-717
▁đẹp	-718
▁hưởng	-719
ít	-720
▁ký	-721
▁riêng	-722
▁cố	-723
▁dành	-724
▁chuyên	-725
▁kiến	-726
ặp	-727
▁mẹ	-728
▁xuất	-729
▁cộng	-730
▁gần	-731
ar	-732
ép	-733
▁nâng	-734
▁đức	-735
▁mạng	-736
▁suất	-737
▁mỹ	-738
▁du	-739
▁chu	-740
▁tiện	-741
▁ít	-742
▁chờ	-743
▁vượt	-744
▁trời	-745
ềm	-746
▁ùm	-747
▁khả	-748
▁ứng	-749
▁trang	-750
ét	-751
▁vui	-752
ạnh	-753
▁tất	-754
ỉnh	-755
▁bệnh	-756
▁nơi	-757
▁xe	-758
▁gặp	-759
▁dài	-760
▁đợi	-761
▁khoảng	-762
▁dựng	-763
▁lãi	-764
▁đáng	-765
▁bởi	-766
▁buổi	-767
ảm	-768
▁mày	-769
▁nhỏ	-770
im	-771
▁lắm	-772
▁tích	-773
▁chá	-774
▁sho	-775
▁chia	-776
▁đặt	-777
▁nguyễn	-778
▁đời	-779
▁sang	-780
ấm	-781
▁dục	-782
▁tục	-783
▁xây	-784
▁nhìn	-785
▁trực	-786
▁hoạt	-787
▁nhau	-788
▁nhật	-789
pe	-790
▁nhé	-791
ếc	-792
ứa	-793
▁giữ	-794
▁càng	-795
▁vệ	-796
▁chiếc	-797
▁đất	-798
▁tiến	-799
▁đầy	-800
▁khăn	-801
ửa	-802
▁đánh	-803
▁sắc	-804
▁tiết	-805
▁đảm	-806
▁cảnh	-807
on	-808
▁cư	-809
pp	-810
▁ha	-811
▁tưởng	-812
▁cáo	-813
▁ghi	-814
▁vững	-815
▁vực	-816
▁chút	-817
▁phụ	-818
▁kêu	-819
▁da	-820
▁dễ	-821
▁lạc	-822
át	-823
▁phòng	-824
pee	-825
▁vẽ	-826
▁thuật	-827
▁shopee	-828
▁mức	-829
▁hi	-830
▁tận	-831
▁hương	-832
▁mi	-833
▁tho	-834
▁nghĩa	-835
▁kiện	-836
▁f	-837
▁cụ	-838
▁trễ	-839
▁khiến	-840
▁ngu	-841
▁chứng	-842
ỡng	-843
▁phù	-844
▁sắp	-845
▁nhiệm	-846
▁môi	-847
ạy	-848
ẩy	-849
▁sĩ	-850
▁đa	-851
▁tầm	-852
▁kiếm	-853
▁địa	-854
▁app	-855
ạp	-856
▁cực	-857
▁gây	-858
▁nhu	-859
▁giữa	-860
▁nguyên	-861
es	-862
▁khóa	-863
▁tinh	-864
▁góp	-865
▁nguồn	-866
▁trò	-867
ượn	-868
▁sơ	-869
▁cháu	-870
ậu	-871
▁cứu	-872
▁mục	-873
▁mượn	-874
▁phép	-875
▁ích	-876
▁chịu	-877
ớm	-878
▁yếu	-879
▁đô	-880
▁lan	-881
▁tử	-882
▁chuẩn	-883
▁kê	-884
▁gắng	-885
ựa	-886
▁u	-887
▁sớm	-888
▁chạy	-889
▁ngàn	-890
▁lớp	-891
▁diện	-892
▁thiện	-893
▁cám	-894
▁lao	-895
▁bền	-896
▁linh	-897
▁đạt	-898
▁dung	-899
▁tỉnh	-900
▁vàng	-901
▁thiếu	-902
▁phục	-903
▁phân	-904
▁lã	-905
▁sẻ	-906
▁quen	-907
▁diễn	-908
▁quản	-909
▁trách	-910
▁đào	-911
òa	-912
▁hu	-913
ic	-914
▁tp	-915
ĩnh	-916
▁khoa	-917
▁lựa	-918
▁quên	-919
▁trưởng	-920
▁kia	-921
▁phía	-922
▁dù	-923
▁xài	-924
▁đội	-925
▁hoài	-926
▁phạm	-927
▁ngành	-928
ỏe	-929
▁bọn	-930
▁khỏe	-931
▁thư	-932
▁nghỉ	-933
▁phản	-934
òi	-935
▁đá	-936
▁ngôi	-937
▁làn	-938
▁liền	-939
▁hảo	-940
▁viện	-941
▁in	-942
▁kể	-943
or	-944
▁chậm	-945
óm	-946
▁áp	-947
▁trừ	-948
deo	-949
▁viết	-950
▁video	-951
▁khuy	-952
el	-953
▁bố	-954
▁âm	-955
▁nổi	-956
et	-957
éo	-958
▁nhắc	-959
óc	-960
▁ca	-961
▁quân	-962
▁đòi	-963
▁rộng	-964
▁hoạch	-965
▁thất	-966
▁nền	-967
▁thái	-968
▁hoàng	-969
st	-970
▁yên	-971
àu	-972
▁bức	-973
▁phạt	-974
▁chóng	-975
ằm	-976
▁bước	-977
▁miễn	-978
▁bác	-979
▁chơi	-980
▁thách	-981
▁biên	-982
▁cung	-983
▁nghi	-984
▁nghề	-985
▁loại	-986
▁e	-987
▁đạo	-988
▁bank	-989
▁quảng	-990
ịp	-991
▁sợ	-992
▁mắc	-993
▁chân	-994
▁bí	-995
▁vời	-996
▁đồ	-997
▁xanh	-998
▁đông	-999
▁chế	-1000
▁lỗi	-1001
▁nữ	-1002
ỏa	-1003
▁mốt	-1004
▁sâu	-1005
▁chồng	-1006
▁hứa	-1007
▁lập	-1008
▁vật	-1009
▁phúc	-1010
▁cam	-1011
▁cập	-1012
▁sát	-1013
▁danh	-1014
▁lưu	-1015
▁vốn	-1016
▁thảo	-1017
▁lệ	-1018
▁bận	-1019
▁chắn	-1020
▁tuyển	-1021
ẫu	-1022
▁bà	-1023
▁tố	-1024
▁sai	-1025
▁vai	-1026
ổng	-1027
▁thiểu	-1028
▁tránh	-1029
▁thưởng	-1030
ón	-1031
▁mật	-1032
▁phi	-1033
▁giấy	-1034
▁thiên	-1035
▁xuống	-1036
▁nghiên	-1037
▁mơ	-1038
▁hậu	-1039
▁mong	-1040
▁mã	-1041
▁vẻ	-1042
▁dưỡng	-1043
▁dưới	-1044
▁gấp	-1045
▁khí	-1046
▁trội	-1047
ụp	-1048
▁lộ	-1049
▁đấu	-1050
▁cửa	-1051
▁món	-1052
▁tao	-1053
▁dữ	-1054
▁chụp	-1055
▁thao	-1056
ter	-1057
▁khai	-1058
▁vòng	-1059
▁tượng	-1060
ưng	-1061
▁cước	-1062
▁lược	-1063
▁thằng	-1064
ính	-1065
▁cận	-1066
▁ngon	-1067
▁cây	-1068
▁hài	-1069
▁xấu	-1070
▁ước	-1071
▁giản	-1072
▁đoàn	-1073
ẩu	-1074
▁la	-1075
▁xa	-1076
▁hút	-1077
ểu	-1078
▁hiểm	-1079
▁trao	-1080
▁cường	-1081
▁thúc	-1082
▁đẳng	-1083
▁trạng	-1084
▁w	-1085
▁ngọc	-1086
▁môn	-1087
▁mắt	-1088
▁thú	-1089
▁xúc	-1090
▁gói	-1091
▁mái	-1092
▁thần	-1093
íu	-1094
▁thuê	-1095
▁giống	-1096
▁hoa	-1097
▁hòa	-1098
▁tụ	-1099
▁chết	-1100
▁kiểu	-1101
▁chẳng	-1102
ợt	-1103
▁mù	-1104
▁hấp	-1105
▁khẩu	-1106
▁vùng	-1107
tl	-1108
▁hạ	-1109
▁xíu	-1110
▁hạnh	-1111
▁lĩnh	-1112
▁tiềm	-1113
▁tải	-1114
▁cạnh	-1115
▁lắng	-1116
uyện	-1117
▁mẫu	-1118
▁đáo	-1119
▁đôi	-1120
▁khỏi	-1121
▁trận	-1122
▁vọng	-1123
▁tuyến	-1124
▁i	-1125
▁nắm	-1126
▁nằm	-1127
▁suy	-1128
▁luật	-1129
ặn	-1130
▁luận	-1131
▁thuộc	-1132
▁đài	-1133
▁phút	-1134
▁tặng	-1135
▁thoải	-1136
ảy	-1137
ine	-1138
▁vũ	-1139
▁gái	-1140
▁vận	-1141
▁nhóm	-1142
ổn	-1143
▁quay	-1144
▁thiệu	-1145
▁mô	-1146
▁mãi	-1147
ne	-1148
▁chăm	-1149
▁thậm	-1150
▁thắng	-1151
▁nạp	-1152
▁phủ	-1153
fa	-1154
▁ni	-1155
▁dần	-1156
▁phổ	-1157
▁chấp	-1158
▁đoạn	-1159
▁đỡ	-1160
▁tui	-1161
▁tỏa	-1162
▁vân	-1163
▁cải	-1164
▁hải	-1165
vi	-1166
▁lễ	-1167
▁hơi	-1168
▁kiệm	-1169
▁vợ	-1170
▁ràng	-1171
▁phiền	-1172
▁khuyến	-1173
vo	-1174
ủy	-1175
▁trì	-1176
▁thẳng	-1177
èo	-1178
▁cổ	-1179
▁li	-1180
▁ấn	-1181
▁ổn	-1182
▁dạy	-1183
▁khổ	-1184
▁mưa	-1185
▁dàng	-1186
ãn	-1187
▁luyện	-1188
▁thiệt	-1189
▁bàn	-1190
▁ngữ	-1191
▁nối	-1192
▁đợt	-1193
▁rạng	-1194
▁ghế	-1195
▁đẩy	-1196
▁ánh	-1197
ck	-1198
▁ro	-1199
▁đáp	-1200
▁biển	-1201
▁suốt	-1202
▁chuyến	-1203
ank	-1204
▁go	-1205
▁mẽ	-1206
▁đảo	-1207
ro	-1208
▁bút	-1209
▁evo	-1210
▁phú	-1211
▁đón	-1212
▁hồng	-1213
▁lãnh	-1214
▁phẩy	-1215
uyên	-1216
▁sóc	-1217
▁xét	-1218
ing	-1219
▁mại	-1220
▁bay	-1221
▁bật	-1222
▁nga	-1223
▁ngờ	-1224
▁sân	-1225
▁chả	-1226
▁khắc	-1227
▁trái	-1228
▁tươi	-1229
▁ô	-1230
bank	-1231
▁đứng	-1232
ồm	-1233
▁tờ	-1234
▁đột	-1235
▁tuấn	-1236
▁tầng	-1237
ủng	-1238
▁kẻ	-1239
▁miền	-1240
▁cắt	-1241
▁tri	-1242
▁huynh	-1243
▁cân	-1244
▁nhở	-1245
▁tàu	-1246
▁ngắn	-1247
le	-1248
▁kéo	-1249
▁tốc	-1250
▁châu	-1251
▁dạng	-1252
▁sofa	-1253
▁đu	-1254
ẹt	-1255
▁mét	-1256
▁tân	-1257
▁khởi	-1258
▁nãy	-1259
▁tụi	-1260
▁ngừng	-1261
lo	-1262
▁sim	-1263
▁thí	-1264
▁ngoại	-1265
ra	-1266
▁bấm	-1267
▁kịp	-1268
▁mối	-1269
▁tết	-1270
▁nông	-1271
ủi	-1272
▁lê	-1273
▁kiên	-1274
▁chừng	-1275
▁duyệt	-1276
▁thuận	-1277
▁xuyên	-1278
▁tây	-1279
▁thưa	-1280
▁trai	-1281
iệp	-1282
▁rỡ	-1283
▁gồm	-1284
▁mùa	-1285
èm	-1286
▁sài	-1287
▁biểu	-1288
▁dương	-1289
▁quanh	-1290
ok	-1291
▁tú	-1292
▁đứa	-1293
▁sàng	-1294
▁quang	-1295
ri	-1296
▁lạ	-1297
▁nộ	-1298
▁sưu	-1299
▁giác	-1300
▁nu	-1301
▁bại	-1302
▁dòng	-1303
▁si	-1304
▁st	-1305
▁che	-1306
▁kẹt	-1307
ộn	-1308
▁cha	-1309
▁niềm	-1310
▁uy	-1311
▁kim	-1312
▁mặc	-1313
▁bóng	-1314
▁kính	-1315
▁chỉnh	-1316
▁bè	-1317
▁áo	-1318
▁dùm	-1319
▁ngủ	-1320
▁đau	-1321
▁đích	-1322
▁lẽ	-1323
▁sư	-1324
▁chặn	-1325
ut	-1326
▁ma	-1327
▁cưng	-1328
▁nỗ	-1329
▁xo	-1330
▁chốt	-1331
▁long	-1332
▁lành	-1333
▁lặng	-1334
▁nặng	-1335
▁phiên	-1336
ale	-1337
▁hại	-1338
▁sơn	-1339
▁ngồi	-1340
▁phức	-1341
▁thấp	-1342
▁đỉnh	-1343
▁nộp	-1344
▁hằng	-1345
od	-1346
▁tù	-1347
▁bạc	-1348
▁kèm	-1349
▁tạp	-1350
▁buộc	-1351
▁hùng	-1352
▁ngại	-1353
▁phối	-1354
▁tảng	-1355
it	-1356
▁hề	-1357
▁lư	-1358
▁mệt	-1359
▁tạm	-1360
▁đốc	-1361
▁chục	-1362
▁kích	-1363
ia	-1364
▁im	-1365
▁mê	-1366
▁bắc	-1367
▁rủi	-1368
▁ninh	-1369
▁phim	-1370
▁trưa	-1371
▁trần	-1372
▁xuân	-1373
▁giảng	-1374
▁trích	-1375
▁cũ	-1376
▁kênh	-1377
ur	-1378
ậc	-1379
vid	-1380
▁sạch	-1381
▁ơ	-1382
▁hưng	-1383
▁giang	-1384
áy	-1385
ão	-1386
▁j	-1387
▁bổ	-1388
▁đà	-1389
▁khô	-1390
▁nạn	-1391
▁sửa	-1392
▁tắt	-1393
▁tồn	-1394
▁giàu	-1395
pho	-1396
▁ru	-1397
▁dậy	-1398
▁tái	-1399
▁tấn	-1400
▁biện	-1401
▁nghị	-1402
▁quận	-1403
▁đổ	-1404
▁cầm	-1405
▁quà	-1406
▁xảy	-1407
▁nhạc	-1408
▁nuôi	-1409
▁xoay	-1410
▁covid	-1411
▁khích	-1412
▁bậc	-1413
▁cười	-1414
▁hiếm	-1415
▁niệm	-1416
▁on	-1417
▁gam	-1418
▁gốc	-1419
▁mời	-1420
▁hứng	-1421
▁nghiêm	-1422
▁lô	-1423
▁dầu	-1424
▁đêm	-1425
phone	-1426
▁sale	-1427
▁sóng	-1428
as	-1429
õi	-1430
▁chớ	-1431
▁cậy	-1432
▁mềm	-1433
▁phê	-1434
▁giai	-1435
▁thầy	-1436
▁giành	-1437
▁gió	-1438
▁lừa	-1439
at	-1440
▁nửa	-1441
▁rút	-1442
▁ung	-1443
▁buồn	-1444
ad	-1445
▁ẩm	-1446
▁ẩn	-1447
▁ngũ	-1448
▁siêu	-1449
▁huyện	-1450
▁nhiệt	-1451
▁thuốc	-1452
bo	-1453
▁xô	-1454
tler	-1455
▁dám	-1456
▁màn	-1457
▁nhẹ	-1458
▁tội	-1459
▁giám	-1460
▁khảo	-1461
▁trơn	-1462
▁hitler	-1463
ớt	-1464
▁cử	-1465
▁dấu	-1466
▁tôn	-1467
▁đen	-1468
▁cuốn	-1469
ac	-1470
ém	-1471
ãng	-1472
▁đỏ	-1473
▁săn	-1474
▁váy	-1475
▁dũng	-1476
▁hiếu	-1477
▁khánh	-1478
▁tuyên	-1479
pay	-1480
▁họa	-1481
▁đàn	-1482
▁sông	-1483
▁xung	-1484
▁tpbank	-1485
ễm	-1486
▁ôi	-1487
▁ấm	-1488
▁tộc	-1489
▁niên	-1490
ew	-1491
▁bíp	-1492
▁mar	-1493
▁liệt	-1494
▁lệch	-1495
▁ráng	-1496
▁soát	-1497
▁phiếu	-1498
do	-1499
▁cup	-1500
▁may	-1501
▁tòa	-1502
▁bánh	-1503
▁bảng	-1504
▁khắp	-1505
▁thăm	-1506
▁uống	-1507
▁chiếm	-1508
▁bá	-1509
▁ủy	-1510
▁quê	-1511
▁thù	-1512
▁xưa	-1513
▁bạch	-1514
▁cánh	-1515
▁nhầm	-1516
▁nghèo	-1517
▁trắng	-1518
co	-1519
ấc	-1520
ứt	-1521
and	-1522
line	-1523
▁loạt	-1524
▁inter	-1525
ca	-1526
ỏng	-1527
▁chữ	-1528
▁tai	-1529
▁tim	-1530
▁hạng	-1531
▁quán	-1532
▁khẳng	-1533
▁lâm	-1534
▁đám	-1535
▁cháy	-1536
▁chặt	-1537
▁huấn	-1538
▁trốn	-1539
▁nhiễm	-1540
▁intern	-1541
us	-1542
lay	-1543
▁chửi	-1544
▁thải	-1545
▁vinh	-1546
▁check	-1547
hi	-1548
▁dõi	-1549
▁lão	-1550
▁truy	-1551
▁online	-1552
ed	-1553
li	-1554
ũi	-1555
ọt	-1556
▁cài	-1557
▁hủy	-1558
▁nhỉ	-1559
▁tắc	-1560
▁giãn	-1561
▁phận	-1562
▁rảnh	-1563
▁thủy	-1564
▁tịch	-1565
▁chống	-1566
▁nhuận	-1567
▁hy	-1568
▁no	-1569
▁nọ	-1570
▁gòn	-1571
▁lộn	-1572
▁phó	-1573
▁ngài	-1574
▁ngôn	-1575
▁rừng	-1576
▁spay	-1577
▁tùng	-1578
▁internet	-1579
ak	-1580
si	-1581
ót	-1582
▁lục	-1583
▁sắm	-1584
▁chữa	-1585
▁hiền	-1586
▁muộn	-1587
▁nóng	-1588
▁thuần	-1589
ld	-1590
ail	-1591
▁bão	-1592
▁đam	-1593
▁nhẫn	-1594
▁thắc	-1595
▁chinh	-1596
ent	-1597
ỳnh	-1598
▁cự	-1599
cast	-1600
▁dịp	-1601
▁khát	-1602
▁can	-1603
▁cục	-1604
▁góc	-1605
▁gắn	-1606
▁thơ	-1607
▁trân	-1608
▁phóng	-1609
▁tướng	-1610
▁khoảnh	-1611
èn	-1612
ói	-1613
ịn	-1614
▁kí	-1615
▁bạo	-1616
▁nỗi	-1617
▁pod	-1618
tline	-1619
▁tĩnh	-1620
▁hotline	-1621
▁podcast	-1622
▁bồ	-1623
▁âu	-1624
▁đỗ	-1625
▁cậu	-1626
▁căng	-1627
▁giỏi	-1628
▁khán	-1629
▁tiểu	-1630
▁đoán	-1631
▁thoát	-1632
▁spaylay	-1633
▁hổ	-1634
▁tô	-1635
▁võ	-1636
uyết	-1637
▁dựa	-1638
▁già	-1639
▁rơi	-1640
▁địch	-1641
▁trống	-1642
▁spaylayter	-1643
▁bày	-1644
▁kém	-1645
▁hãng	-1646
▁thuyết	-1647
gh	-1648
ùi	-1649
▁kệ	-1650
▁bầu	-1651
▁cơm	-1652
▁hào	-1653
▁hiệp	-1654
▁điển	-1655
▁lưỡng	-1656
▁ngược	-1657
▁trồng	-1658
▁đương	-1659
▁chợ	-1660
▁thụ	-1661
▁banh	-1662
▁ngời	-1663
▁quần	-1664
▁thua	-1665
▁khủng	-1666
▁phường	-1667
il	-1668
ìa	-1669
art	-1670
▁lũ	-1671
▁tớ	-1672
▁hồn	-1673
▁tốn	-1674
▁binh	-1675
▁tràn	-1676
▁đuổi	-1677
▁huyền	-1678
▁bê	-1679
▁lầm	-1680
▁vin	-1681
▁ngăn	-1682
▁nhằm	-1683
▁iphone	-1684
ụng	-1685
▁cà	-1686
▁uk	-1687
▁cán	-1688
▁cơn	-1689
▁cựu	-1690
▁the	-1691
▁wor	-1692
▁bổng	-1693
te	-1694
úi	-1695
ụt	-1696
▁cẩn	-1697
▁leo	-1698
▁tật	-1699
▁ủng	-1700
▁chúc	-1701
▁thúy	-1702
ea	-1703
▁ồ	-1704
▁bớt	-1705
▁hàn	-1706
▁lát	-1707
▁yến	-1708
▁đắt	-1709
▁nhấn	-1710
▁huống	-1711
ỡi	-1712
▁xạ	-1713
▁bối	-1714
▁huế	-1715
▁lận	-1716
▁tùy	-1717
▁van	-1718
▁vua	-1719
▁đem	-1720
▁khối	-1721
▁song	-1722
▁khuyên	-1723
is	-1724
ll	-1725
un	-1726
ym	-1727
rai	-1728
ựng	-1729
▁gỡ	-1730
book	-1731
▁cãi	-1732
▁núi	-1733
▁dừng	-1734
▁khen	-1735
▁lượt	-1736
▁chiếu	-1737
úa	-1738
ẫm	-1739
iệng	-1740
▁dây	-1741
▁hát	-1742
▁lối	-1743
▁lửa	-1744
▁quỹ	-1745
▁sốt	-1746
▁chán	-1747
▁diệu	-1748
▁ngắt	-1749
▁sung	-1750
▁thừa	-1751
▁miệng	-1752
▁ukrai	-1753
▁vuông	-1754
▁thượng	-1755
lf	-1756
pt	-1757
▁fac	-1758
▁lọc	-1759
▁mát	-1760
▁oke	-1761
▁rãi	-1762
▁vội	-1763
▁đậm	-1764
▁khôn	-1765
▁mạch	-1766
▁khung	-1767
▁world	-1768
ta	-1769
ườn	-1770
▁vé	-1771
▁cap	-1772
▁ghê	-1773
▁tổn	-1774
▁khan	-1775
▁lệnh	-1776
▁trúc	-1777
▁viet	-1778
▁email	-1779
ọa	-1780
▁bỉ	-1781
▁rẻ	-1782
▁rác	-1783
▁xâm	-1784
▁cưới	-1785
▁khơi	-1786
▁mừng	-1787
▁ruột	-1788
▁sánh	-1789
ùa	-1790
▁mộ	-1791
▁tỏ	-1792
▁rực	-1793
▁tấm	-1794
▁canh	-1795
▁golf	-1796
▁kiệt	-1797
▁quầy	-1798
▁thuế	-1799
▁thói	-1800
▁thẩm	-1801
▁trọn	-1802
▁duyên	-1803
▁khoan	-1804
▁khoán	-1805
▁khổng	-1806
ev	-1807
la	-1808
re	-1809
ẳn	-1810
ếng	-1811
▁nổ	-1812
▁sổ	-1813
▁ái	-1814
▁ảo	-1815
▁chẽ	-1816
▁hẳn	-1817
▁non	-1818
▁pro	-1819
▁giận	-1820
▁mark	-1821
▁thịnh	-1822
▁ukraine	-1823
og	-1824
▁dĩ	-1825
▁ly	-1826
▁sa	-1827
▁blo	-1828
▁bưu	-1829
▁bến	-1830
▁hối	-1831
▁mỏi	-1832
▁táo	-1833
▁thận	-1834
▁tiếc	-1835
▁nguyện	-1836
be	-1837
um	-1838
est	-1839
ity	-1840
▁ar	-1841
▁dạo	-1842
▁gọn	-1843
▁hôn	-1844
▁họp	-1845
▁mũi	-1846
▁chìm	-1847
▁chối	-1848
▁gogh	-1849
▁ngợi	-1850
▁vườn	-1851
▁khuôn	-1852
▁quỳnh	-1853
ist	-1854
ướp	-1855
▁cờ	-1856
▁lồ	-1857
▁mo	-1858
▁sm	-1859
▁tỉ	-1860
▁khứ	-1861
▁máu	-1862
▁mịn	-1863
▁new	-1864
▁thổ	-1865
▁tán	-1866
▁face	-1867
▁hổng	-1868
▁trương	-1869
▁bệ	-1870
▁vy	-1871
▁sàn	-1872
▁tóm	-1873
▁đói	-1874
▁chứa	-1875
▁giật	-1876
▁mệnh	-1877
▁thuyền	-1878
▁facebook	-1879
ap	-1880
ưỡi	-1881
▁lá	-1882
▁hot	-1883
▁hầu	-1884
▁lẫn	-1885
▁rời	-1886
▁thọ	-1887
▁tuệ	-1888
▁vạn	-1889
▁ổng	-1890
▁chấm	-1891
▁giây	-1892
▁kịch	-1893
▁lạnh	-1894
▁mail	-1895
▁rưỡi	-1896
▁trầm	-1897
▁đảng	-1898
▁chàng	-1899
▁trinh	-1900
ard	-1901
ion	-1902
▁am	-1903
▁as	-1904
▁hè	-1905
▁bếp	-1906
▁gom	-1907
▁ind	-1908
▁lái	-1909
▁mãn	-1910
▁ron	-1911
▁rối	-1912
▁xóm	-1913
▁đua	-1914
eting	-1915
▁cướp	-1916
▁giấc	-1917
▁ngẫm	-1918
▁thùy	-1919
▁thập	-1920
▁tuân	-1921
▁đàng	-1922
▁đặng	-1923
▁chuỗi	-1924
▁nhàng	-1925
▁phỏng	-1926
▁marketing	-1927
▁lạm	-1928
▁mực	-1929
▁trụ	-1930
▁đéo	-1931
▁đắn	-1932
▁city	-1933
▁dinh	-1934
▁lính	-1935
▁trại	-1936
▁phiêu	-1937
▁trông	-1938
▁trúng	-1939
eb	-1940
ướt	-1941
▁mỉ	-1942
▁lộc	-1943
▁rào	-1944
▁sốc	-1945
▁trú	-1946
▁đâm	-1947
▁buôn	-1948
▁nhấc	-1949
▁tháo	-1950
▁vong	-1951
▁điệu	-1952
▁giọng	-1953
▁hoang	-1954
▁vương	-1955
▁thoáng	-1956
ag	-1957
hip	-1958
▁bó	-1959
▁my	-1960
▁mẻ	-1961
▁ol	-1962
▁xứ	-1963
▁ép	-1964
▁cal	-1965
▁com	-1966
▁cản	-1967
▁dọa	-1968
▁dồi	-1969
▁hận	-1970
▁kẻo	-1971
▁lắp	-1972
▁mầm	-1973
▁par	-1974
▁đàm	-1975
▁chạm	-1976
▁khao	-1977
▁khúc	-1978
▁tung	-1979
▁vựng	-1980
▁hoảng	-1981
▁ngang	-1982
▁nhũng	-1983
ff	-1984
▁ê	-1985
era	-1986
ươn	-1987
▁tệ	-1988
▁un	-1989
▁ồn	-1990
▁bắn	-1991
▁dao	-1992
▁dồn	-1993
▁hộp	-1994
▁mạo	-1995
▁pha	-1996
▁top	-1997
▁trà	-1998
▁tùm	-1999
▁lãng	-2000
▁ngọt	-2001
▁huyết	-2002
▁lường	-2003
▁smart	-2004
▁vượng	-2005
áp	-2006
ada	-2007
ean	-2008
pic	-2009
▁cú	-2010
▁he	-2011
▁chó	-2012
▁dứt	-2013
▁gạo	-2014
▁huệ	-2015
▁mau	-2016
▁ngã	-2017
▁tan	-2018
▁vẹn	-2019
▁vết	-2020
▁web	-2021
▁đai	-2022
ympic	-2023
▁băng	-2024
▁game	-2025
▁khấu	-2026
▁thỏa	-2027
▁trào	-2028
▁vươn	-2029
▁khiển	-2030
▁ngoan	-2031
▁olympic	-2032
na	-2033
so	-2034
ẫy	-2035
ara	-2036
▁bờ	-2037
▁lẻ	-2038
▁lỗ	-2039
▁vo	-2040
▁bãi	-2041
▁cấu	-2042
▁hòn	-2043
▁log	-2044
▁mắn	-2045
▁túy	-2046
▁bill	-2047
▁bùng	-2048
▁chấn	-2049
▁dính	-2050
▁loan	-2051
▁loạn	-2052
▁làng	-2053
▁then	-2054
▁thấu	-2055
▁treo	-2056
▁trôi	-2057
▁apple	-2058
▁games	-2059
▁miếng	-2060
▁nhánh	-2061
▁phước	-2062
▁triều	-2063
▁tường	-2064
▁smartphone	-2065
ry	-2066
zz	-2067
ốm	-2068
ina	-2069
▁ac	-2070
▁đe	-2071
icut	-2072
▁bùi	-2073
▁bực	-2074
▁cát	-2075
▁cấm	-2076
▁dắt	-2077
▁gìn	-2078
▁ngư	-2079
▁rèn	-2080
▁túc	-2081
▁túi	-2082
▁đền	-2083
▁đồn	-2084
▁thác	-2085
▁thôn	-2086
▁tour	-2087
▁xứng	-2088
▁điệp	-2089
▁cưỡng	-2090
▁calicut	-2091
ex	-2092
ts	-2093
▁ả	-2094
lob	-2095
▁mổ	-2096
▁re	-2097
▁vỡ	-2098
aldo	-2099
ogle	-2100
orin	-2101
▁gũi	-2102
▁gợi	-2103
▁hạt	-2104
▁hụt	-2105
▁kìa	-2106
▁mùi	-2107
▁son	-2108
▁sếp	-2109
▁thự	-2110
▁tóc	-2111
▁glob	-2112
▁gánh	-2113
▁hoãn	-2114
▁khóc	-2115
▁khốc	-2116
▁lưới	-2117
▁nhảy	-2118
▁nhức	-2119
▁phẫu	-2120
▁răng	-2121
▁stem	-2122
▁tròn	-2123
▁đoạt	-2124
▁đằng	-2125
▁google	-2126
bi	-2127
to	-2128
up	-2129
ắk	-2130
ess	-2131
iệc	-2132
out	-2133
ỗng	-2134
▁bù	-2135
▁cỡ	-2136
▁fi	-2137
▁gỗ	-2138
▁sứ	-2139
▁chà	-2140
▁chê	-2141
▁fan	-2142
▁hâm	-2143
▁lúa	-2144
▁lật	-2145
▁mạc	-2146
▁ngô	-2147
▁đan	-2148
▁đùa	-2149
▁đập	-2150
▁bụng	-2151
▁chèo	-2152
▁cúng	-2153
▁giết	-2154
▁khéo	-2155
▁phán	-2156
▁sành	-2157
▁tiệc	-2158
▁tuyết	-2159
ci	-2160
sa	-2161
ỡn	-2162
ain	-2163
ell	-2164
lip	-2165
ver	-2166
▁dợ	-2167
▁hé	-2168
▁kì	-2169
ster	-2170
▁bom	-2171
▁bát	-2172
▁chở	-2173
▁gai	-2174
▁hổm	-2175
▁kín	-2176
▁lum	-2177
▁man	-2178
▁mốc	-2179
▁rập	-2180
▁sea	-2181
▁tal	-2182
▁đạp	-2183
▁bích	-2184
▁cảng	-2185
▁ghét	-2186
▁lùng	-2187
▁lưng	-2188
▁ngập	-2189
▁nhịp	-2190
▁thầm	-2191
▁thịt	-2192
▁thổi	-2193
▁viễn	-2194
▁điên	-2195
▁khang	-2196
▁canada	-2197
▁global	-2198
kt	-2199
nd	-2200
aka	-2201
ano	-2202
▁al	-2203
▁mò	-2204
▁pi	-2205
▁tị	-2206
▁tủ	-2207
▁vr	-2208
▁úc	-2209
apor	-2210
outu	-2211
▁cúp	-2212
▁cột	-2213
▁não	-2214
▁giỡn	-2215
▁hiển	-2216
▁mùng	-2217
▁ngơi	-2218
▁nhạy	-2219
▁tàng	-2220
▁xinh	-2221
▁khiếu	-2222
▁youtu	-2223
▁khuyết	-2224
▁ronaldo	-2225
di	-2226
ram	-2227
ure	-2228
▁au	-2229
▁lụ	-2230
▁tả	-2231
▁ác	-2232
▁ốm	-2233
ardo	-2234
ktok	-2235
▁bốc	-2236
▁car	-2237
▁lào	-2238
▁mon	-2239
▁ngộ	-2240
▁nhị	-2241
▁nâu	-2242
▁nét	-2243
▁ser	-2244
▁sạn	-2245
▁tạc	-2246
▁chìa	-2247
▁giấu	-2248
▁hông	-2249
▁khái	-2250
▁màng	-2251
▁mảnh	-2252
▁ngắm	-2253
▁nắng	-2254
▁than	-2255
▁trỗi	-2256
▁xăng	-2257
▁cương	-2258
▁huỳnh	-2259
▁tiktok	-2260
ek	-2261
tel	-2262
▁sh	-2263
▁xỉ	-2264
▁bơi	-2265
▁chì	-2266
▁cạn	-2267
▁cọc	-2268
▁dâu	-2269
▁hưu	-2270
▁liv	-2271
▁mây	-2272
▁phu	-2273
▁tha	-2274
▁thở	-2275
▁ven	-2276
▁vãi	-2277
▁đắc	-2278
nardo	-2279
▁bách	-2280
▁chập	-2281
▁cứng	-2282
▁dâng	-2283
▁hung	-2284
▁kiều	-2285
▁loài	-2286
▁ngạc	-2287
▁nhặt	-2288
▁phật	-2289
▁ship	-2290
▁sing	-2291
▁talk	-2292
▁thơm	-2293
▁view	-2294
▁capro	-2295
▁gương	-2296
▁kháng	-2297
▁camera	-2298
▁youtube	-2299
▁leonardo	-2300
fe	-2301
th	-2302
ti	-2303
tp	-2304
ẹo	-2305
ộm	-2306
com	-2307
ics	-2308
▁ao	-2309
▁bo	-2310
▁dị	-2311
▁jo	-2312
▁tý	-2313
▁vn	-2314
▁vĩ	-2315
▁ân	-2316
▁ôm	-2317
▁ôn	-2318
▁ưa	-2319
▁col	-2320
▁hỏa	-2321
▁kil	-2322
▁mặn	-2323
▁nại	-2324
▁sót	-2325
▁sạc	-2326
▁trữ	-2327
▁xóa	-2328
apore	-2329
▁chép	-2330
▁chảy	-2331
▁chờn	-2332
▁clip	-2333
▁dáng	-2334
▁khép	-2335
▁lông	-2336
▁ngọn	-2337
▁nhối	-2338
▁phổi	-2339
▁thám	-2340
▁tiễn	-2341
▁trục	-2342
▁vang	-2343
▁điền	-2344
▁block	-2345
▁khoác	-2346
▁nhung	-2347
▁trùng	-2348
▁xương	-2349
▁master	-2350
▁singapore	-2351
ov	-2352
ber	-2353
uch	-2354
▁cỏ	-2355
▁dj	-2356
▁gr	-2357
▁op	-2358
▁ám	-2359
ones	-2360
▁bậy	-2361
▁bội	-2362
▁cai	-2363
▁cic	-2364
▁dọn	-2365
▁fpt	-2366
▁mến	-2367
▁nov	-2368
▁nút	-2369
▁nấu	-2370
▁rệt	-2371
▁rộn	-2372
▁sco	-2373
▁sôi	-2374
▁thả	-2375
▁thợ	-2376
▁zam	-2377
chain	-2378
▁bang	-2379
▁chật	-2380
▁hiến	-2381
▁lung	-2382
▁lăng	-2383
▁mượt	-2384
▁mảng	-2385
▁nhãn	-2386
▁phấn	-2387
▁thảm	-2388
▁tivi	-2389
▁tiệm	-2390
▁hoành	-2391
▁ngoái	-2392
▁mangaka	-2393
▁blockchain	-2394
op	-2395
ph	-2396
tt	-2397
ani	-2398
ral	-2399
▁êm	-2400
asso	-2401
esla	-2402
stag	-2403
▁bào	-2404
▁for	-2405
▁gan	-2406
▁heo	-2407
▁hán	-2408
▁hãi	-2409
▁hắn	-2410
▁loa	-2411
▁nho	-2412
▁pic	-2413
▁thề	-2414
▁tào	-2415
uture	-2416
▁bừng	-2417
▁chen	-2418
▁chớp	-2419
▁gạch	-2420
▁hỏng	-2421
▁open	-2422
▁tông	-2423
▁xách	-2424
▁đắng	-2425
▁đụng	-2426
▁chiết	-2427
▁trăng	-2428
▁ngưỡng	-2429
▁picasso	-2430
ga	-2431
ni	-2432
ol	-2433
uk	-2434
ớp	-2435
ger	-2436
▁ag	-2437
▁dò	-2438
▁dở	-2439
▁ed	-2440
▁ga	-2441
▁na	-2442
▁vả	-2443
▁ào	-2444
ream	-2445
ress	-2446
sian	-2447
▁báu	-2448
▁cắn	-2449
▁dày	-2450
▁len	-2451
▁max	-2452
▁mèo	-2453
▁nần	-2454
▁nốt	-2455
▁pin	-2456
▁san	-2457
▁tel	-2458
▁vợt	-2459
▁xót	-2460
▁địt	-2461
▁ghép	-2462
▁lang	-2463
▁muôn	-2464
▁nhàn	-2465
▁thai	-2466
▁tiêm	-2467
▁vĩnh	-2468
▁vũng	-2469
onesia	-2470
▁asean	-2471
▁capra	-2472
▁ngươi	-2473
▁tesla	-2474
▁thăng	-2475
▁trứng	-2476
stagram	-2477
▁truyện	-2478
▁zamorin	-2479
▁indonesia	-2480
▁instagram	-2481
by	-2482
dp	-2483
gu	-2484
yo	-2485
ằn	-2486
ẻo	-2487
ama	-2488
enz	-2489
lic	-2490
ượu	-2491
▁bơ	-2492
▁de	-2493
▁mồ	-2494
▁mờ	-2495
▁rẽ	-2496
▁tì	-2497
▁xi	-2498
gent	-2499
ines	-2500
ions	-2501
▁cay	-2502
▁cắm	-2503
▁cốt	-2504
▁lam	-2505
▁lìn	-2506
▁lặp	-2507
▁min	-2508
▁set	-2509
▁sữa	-2510
▁tôm	-2511
▁tắm	-2512
▁đeo	-2513
▁đèn	-2514
▁đốt	-2515
▁blog	-2516
▁giam	-2517
▁gián	-2518
▁khoe	-2519
▁khói	-2520
▁life	-2521
▁park	-2522
▁rượu	-2523
▁shop	-2524
▁thâm	-2525
▁trâm	-2526
▁khiếp	-2527
▁future	-2528
▁viettel	-2529
ge	-2530
go	-2531
ik	-2532
no	-2533
se	-2534
ble	-2535
ood	-2536
ork	-2537
rab	-2538
rid	-2539
son	-2540
umb	-2541
▁bò	-2542
▁gã	-2543
▁hư	-2544
▁mỡ	-2545
▁pl	-2546
▁tá	-2547
▁us	-2548
▁xả	-2549
▁xế	-2550
tech	-2551
▁bển	-2552
▁bồi	-2553
▁chừ	-2554
▁cẩm	-2555
▁dại	-2556
▁ham	-2557
▁har	-2558
▁hoi	-2559
▁hổi	-2560
▁inf	-2561
▁léo	-2562
▁lùi	-2563
▁mâu	-2564
▁mẹo	-2565
▁mọc	-2566
▁pay	-2567
▁rau	-2568
▁rắn	-2569
▁vất	-2570
▁bông	-2571
▁châm	-2572
▁dược	-2573
▁khía	-2574
▁khớp	-2575
▁lisa	-2576
▁liều	-2577
▁mona	-2578
▁mộng	-2579
▁ngặt	-2580
▁nhịn	-2581
▁vạch	-2582
▁york	-2583
▁đống	-2584
▁ương	-2585
istics	-2586
▁chặng	-2587
▁khuất	-2588
▁nghen	-2589
▁ngưng	-2590
▁phanh	-2591
▁start	-2592
▁thoái	-2593
▁thuẫn	-2594
▁columb	-2595
▁giường	-2596
▁logistics	-2597
cb	-2598
de	-2599
eg	-2600
ễu	-2601
ụi	-2602
ens	-2603
que	-2604
tam	-2605
und	-2606
ved	-2607
ềng	-2608
▁bạ	-2609
▁gà	-2610
▁hò	-2611
▁is	-2612
▁ke	-2613
▁lẹ	-2614
▁nở	-2615
▁ấp	-2616
elts	-2617
fast	-2618
mail	-2619
ment	-2620
okov	-2621
▁and	-2622
▁bia	-2623
▁cặp	-2624
▁dạn	-2625
▁dẹp	-2626
▁gdp	-2627
▁gym	-2628
▁gân	-2629
▁hái	-2630
▁hẹp	-2631
▁lũy	-2632
▁lột	-2633
▁móc	-2634
▁nan	-2635
▁ngỡ	-2636
▁nhổ	-2637
▁sam	-2638
▁sắt	-2639
▁tam	-2640
▁tẩy	-2641
▁tựa	-2642
▁tựu	-2643
▁vàn	-2644
▁đắk	-2645
stral	-2646
▁cống	-2647
▁củng	-2648
▁file	-2649
▁liêm	-2650
▁miết	-2651
▁ngừa	-2652
▁ngực	-2653
▁nhơn	-2654
▁nhấp	-2655
▁phím	-2656
▁quét	-2657
▁rỗng	-2658
▁soạn	-2659
▁tháp	-2660
▁thản	-2661
▁trật	-2662
▁vành	-2663
okovic	-2664
▁asian	-2665
▁chiêu	-2666
▁combo	-2667
▁ielts	-2668
▁quyên	-2669
▁tráng	-2670
estream	-2671
gentina	-2672
▁chuông	-2673
▁golfer	-2674
▁stress	-2675
▁austral	-2676
▁banking	-2677
▁comment	-2678
▁vinfast	-2679
▁djokovic	-2680
▁argentina	-2681
▁livestream	-2682
ke	-2683
amp	-2684
enc	-2685
gam	-2686
gue	-2687
ink	-2688
▁cớ	-2689
▁el	-2690
▁gò	-2691
▁kề	-2692
▁nụ	-2693
▁oh	-2694
▁po	-2695
▁pr	-2696
▁rà	-2697
▁rũ	-2698
▁tò	-2699
▁ui	-2700
▁vớ	-2701
ista	-2702
▁atp	-2703
▁bắp	-2704
▁cất	-2705
▁cửu	-2706
▁ghé	-2707
▁héc	-2708
▁hôi	-2709
▁lây	-2710
▁lãm	-2711
▁lứa	-2712
▁mưu	-2713
▁nôn	-2714
▁nản	-2715
▁nảy	-2716
▁phe	-2717
▁quế	-2718
▁rốt	-2719
▁sút	-2720
▁tre	-2721
▁vas	-2722
▁đán	-2723
▁ướt	-2724
tland	-2725
▁agri	-2726
▁bong	-2727
▁diệp	-2728
▁giáp	-2729
▁hoan	-2730
▁khoá	-2731
▁kilô	-2732
▁láng	-2733
▁lướt	-2734
▁lạng	-2735
▁lồng	-2736
▁nhắm	-2737
▁note	-2738
▁phan	-2739
▁rung	-2740
▁thụy	-2741
▁trộm	-2742
▁tịnh	-2743
▁đuôi	-2744
▁buông	-2745
▁champ	-2746
▁dường	-2747
▁logic	-2748
▁paris	-2749
▁thiệp	-2750
▁tràng	-2751
▁trưng	-2752
▁phượng	-2753
▁agribank	-2754
▁scotland	-2755
▁champions	-2756
ba	-2757
sh	-2758
ty	-2759
bai	-2760
ern	-2761
ian	-2762
lli	-2763
nam	-2764
nga	-2765
▁be	-2766
▁bề	-2767
▁dì	-2768
▁mc	-2769
▁nề	-2770
▁rộ	-2771
▁tạ	-2772
ashi	-2773
▁acb	-2774
▁búa	-2775
▁bấy	-2776
▁bứt	-2777
▁dàn	-2778
▁hàm	-2779
▁hèn	-2780
▁kon	-2781
▁lăn	-2782
▁lọt	-2783
▁med	-2784
▁men	-2785
▁nic	-2786
▁nôm	-2787
▁rét	-2788
▁thờ	-2789
▁tím	-2790
▁tặc	-2791
▁vir	-2792
▁vẩn	-2793
▁vọt	-2794
▁xăm	-2795
▁đòn	-2796
▁đạc	-2797
▁đới	-2798
rylic	-2799
▁benz	-2800
▁cent	-2801
▁chat	-2802
▁chim	-2803
▁chúa	-2804
▁dani	-2805
▁giời	-2806
▁grab	-2807
▁hoại	-2808
▁khôi	-2809
▁liễu	-2810
▁nhàm	-2811
▁nhựa	-2812
▁phui	-2813
▁phái	-2814
▁quặc	-2815
▁show	-2816
▁suối	-2817
▁súng	-2818
▁thèm	-2819
▁trặc	-2820
▁túng	-2821
▁đựng	-2822
▁chênh	-2823
▁dubai	-2824
▁kenga	-2825
▁khiêm	-2826
▁khùng	-2827
▁phụng	-2828
▁thước	-2829
▁triệt	-2830
▁vasco	-2831
▁vinci	-2832
▁chuộng	-2833
▁nghiện	-2834
▁acrylic	-2835
▁kilôgam	-2836
▁startup	-2837
▁columbus	-2838
ep	-2839
ie	-2840
po	-2841
ss	-2842
ul	-2843
▁q	-2844
end	-2845
rad	-2846
ờng	-2847
▁cr	-2848
▁ir	-2849
▁kĩ	-2850
▁nã	-2851
▁vỏ	-2852
▁át	-2853
▁đệ	-2854
▁ốc	-2855
chin	-2856
essi	-2857
oman	-2858
raph	-2859
▁aff	-2860
▁aoc	-2861
▁bén	-2862
▁bóc	-2863
▁bơm	-2864
▁bẩn	-2865
▁dội	-2866
▁dời	-2867
▁fin	-2868
▁gen	-2869
▁hom	-2870
▁kem	-2871
▁lui	-2872
▁lạt	-2873
▁lắk	-2874
▁mod	-2875
▁mạn	-2876
▁mập	-2877
▁nhỡ	-2878
▁náo	-2879
▁nát	-2880
▁nếp	-2881
▁rap	-2882
▁rớt	-2883
▁sch	-2884
▁seo	-2885
▁tro	-2886
▁tàn	-2887
▁tát	-2888
▁tọa	-2889
▁tồi	-2890
▁vải	-2891
▁vụt	-2892
▁xào	-2893
▁đạn	-2894
aland	-2895
ation	-2896
ester	-2897
vedev	-2898
▁bỗng	-2899
▁chai	-2900
▁chém	-2901
▁cổng	-2902
▁diệt	-2903
▁giày	-2904
▁hước	-2905
▁khâu	-2906
▁kông	-2907
▁link	-2908
▁luân	-2909
▁lách	-2910
▁lưỡi	-2911
▁ngào	-2912
▁ngần	-2913
▁nháy	-2914
▁nàng	-2915
▁phẫn	-2916
▁stal	-2917
▁thầu	-2918
▁trạm	-2919
▁trấn	-2920
▁trắc	-2921
▁wood	-2922
▁xích	-2923
▁đuối	-2924
ashion	-2925
▁messi	-2926
▁novak	-2927
▁ruộng	-2928
▁thiêm	-2929
▁tuồng	-2930
▁cochin	-2931
▁nhường	-2932
▁fashion	-2933
▁medvedev	-2934
▁fashionista	-2935
ce	-2936
da	-2937
ha	-2938
id	-2939
io	-2940
ma	-2941
sk	-2942
sp	-2943
én	-2944
ant	-2945
bel	-2946
ema	-2947
ino	-2948
kyo	-2949
way	-2950
▁dã	-2951
▁eu	-2952
▁ja	-2953
▁lò	-2954
▁lờ	-2955
▁nà	-2956
▁rổ	-2957
▁va	-2958
▁vã	-2959
▁đế	-2960
▁ủi	-2961
▁ức	-2962
▁ừa	-2963
▁ừm	-2964
araz	-2965
even	-2966
lipp	-2967
omes	-2968
pper	-2969
rist	-2970
roup	-2971
sier	-2972
▁alc	-2973
▁bóp	-2974
▁chè	-2975
▁cop	-2976
▁cóc	-2977
▁dai	-2978
▁del	-2979
▁dặn	-2980
▁dẻo	-2981
▁dọc	-2982
▁dốc	-2983
▁dối	-2984
▁fta	-2985
▁gãy	-2986
▁gặt	-2987
▁gởi	-2988
▁kar	-2989
▁lay	-2990
▁lea	-2991
▁lõi	-2992
▁lội	-2993
▁mal	-2994
▁mài	-2995
▁mác	-2996
▁mần	-2997
▁nai	-2998
▁nhí	-2999
▁oan	-3000
▁run	-3001
▁rày	-3002
▁rửa	-3003
▁soi	-3004
▁sầu	-3005
▁sợi	-3006
▁trù	-3007
▁vẫy	-3008
▁xỉn	-3009
▁đắm	-3010
▁đặn	-3011
eland	-3012
▁asia	-3013
▁bành	-3014
▁bỏng	-3015
▁mini	-3016
▁muối	-3017
▁móng	-3018
▁news	-3019
▁ngầm	-3020
▁nồng	-3021
▁oanh	-3022
▁riết	-3023
▁thắn	-3024
▁thắt	-3025
▁thốn	-3026
▁trâu	-3027
▁trăn	-3028
▁trộn	-3029
▁vịnh	-3030
▁xưng	-3031
ussier	-3032
▁chuột	-3033
▁chủng	-3034
▁haizz	-3035
▁quãng	-3036
▁thang	-3037
▁thủng	-3038
▁tokyo	-3039
▁vướng	-3040
▁chuyền	-3041
▁league	-3042
▁nhượng	-3043
lippines	-3044
▁alcaraz	-3045
▁benzema	-3046
▁troussier	-3047
▁philippines	-3048
▁championship	-3049
ec	-3050
hn	-3051
iv	-3052
kk	-3053
ks	-3054
lu	-3055
lv	-3056
tm	-3057
ýt	-3058
ịa	-3059
ịt	-3060
▁ư	-3061
▁ỉ	-3062
bnd	-3063
bot	-3064
dio	-3065
ech	-3066
ham	-3067
ise	-3068
ort	-3069
ric	-3070
sen	-3071
uku	-3072
wit	-3073
zam	-3074
zil	-3075
▁bẻ	-3076
▁gu	-3077
▁hã	-3078
▁hô	-3079
▁le	-3080
▁mì	-3081
▁mỏ	-3082
▁mớ	-3083
▁sc	-3084
▁sk	-3085
▁sỹ	-3086
▁vở	-3087
▁xá	-3088
▁đê	-3089
bert	-3090
land	-3091
rael	-3092
▁air	-3093
▁bụi	-3094
▁cởi	-3095
▁cụm	-3096
▁gay	-3097
▁gạt	-3098
▁gắt	-3099
▁hel	-3100
▁hỗn	-3101
▁kan	-3102
▁kha	-3103
▁lầu	-3104
▁lỏi	-3105
▁méo	-3106
▁mẩn	-3107
▁neo	-3108
▁nhĩ	-3109
▁nêu	-3110
▁nóc	-3111
▁nấm	-3112
▁nếm	-3113
▁ott	-3114
▁rầm	-3115
▁trọ	-3116
▁tấp	-3117
▁voi	-3118
▁win	-3119
▁đúc	-3120
▁đấm	-3121
▁ưng	-3122
bique	-3123
ucher	-3124
▁bell	-3125
▁card	-3126
▁chay	-3127
▁chùa	-3128
▁khẩn	-3129
▁kiếp	-3130
▁lion	-3131
▁liêu	-3132
▁lười	-3133
▁muni	-3134
▁mãnh	-3135
▁ngột	-3136
▁nhen	-3137
▁nhát	-3138
▁nhăn	-3139
▁niêm	-3140
▁pháo	-3141
▁phơi	-3142
▁play	-3143
▁thấm	-3144
▁thềm	-3145
▁ubnd	-3146
▁vắng	-3147
▁đành	-3148
▁chông	-3149
▁chăng	-3150
▁index	-3151
▁mozam	-3152
▁quyến	-3153
▁robot	-3154
▁serum	-3155
▁thiền	-3156
▁thạch	-3157
▁trượt	-3158
▁daniil	-3159
▁israel	-3160
▁nhoáng	-3161
▁thoảng	-3162
▁masters	-3163
▁vietcom	-3164
▁voucher	-3165
▁vinhomes	-3166
▁mozambique	-3167
bs	-3168
ei	-3169
fi	-3170
hm	-3171
ow	-3172
wn	-3173
ws	-3174
yn	-3175
ớn	-3176
bur	-3177
che	-3178
cta	-3179
hon	-3180
los	-3181
nda	-3182
ton	-3183
▁ad	-3184
▁bì	-3185
▁bể	-3186
▁bỡ	-3187
▁cỗ	-3188
▁dê	-3189
▁es	-3190
▁fr	-3191
▁hp	-3192
▁hở	-3193
▁lọ	-3194
▁nạ	-3195
▁rè	-3196
▁sờ	-3197
▁tơ	-3198
▁tứ	-3199
▁vf	-3200
▁vạ	-3201
▁xẻ	-3202
▁út	-3203
▁đẻ	-3204
▁đụ	-3205
blev	-3206
brid	-3207
dows	-3208
dway	-3209
ited	-3210
kkad	-3211
ptop	-3212
puch	-3213
vard	-3214
view	-3215
▁ber	-3216
▁bor	-3217
▁bra	-3218
▁bái	-3219
▁côi	-3220
▁dấy	-3221
▁dịu	-3222
▁fdi	-3223
▁gối	-3224
▁keo	-3225
▁khư	-3226
▁kẹo	-3227
▁lân	-3228
▁lít	-3229
▁lồn	-3230
▁lụt	-3231
▁mma	-3232
▁mos	-3233
▁múa	-3234
▁mỉm	-3235
▁ong	-3236
▁rao	-3237
▁ráp	-3238
▁rắc	-3239
▁rụt	-3240
▁rứa	-3241
▁sáo	-3242
▁sợt	-3243
▁tạt	-3244
▁tụt	-3245
▁usd	-3246
▁vip	-3247
▁vứt	-3248
▁xao	-3249
▁xạo	-3250
▁đậu	-3251
▁đồi	-3252
▁đứt	-3253
andal	-3254
▁bung	-3255
▁buồm	-3256
▁chéo	-3257
▁chót	-3258
▁chẩn	-3259
▁chọi	-3260
▁cong	-3261
▁elon	-3262
▁euro	-3263
▁giặt	-3264
▁hang	-3265
▁kiev	-3266
▁land	-3267
▁like	-3268
▁lảng	-3269
▁miệt	-3270
▁musk	-3271
▁nhan	-3272
▁nhái	-3273
▁quát	-3274
▁quất	-3275
▁ranh	-3276
▁rành	-3277
▁rồng	-3278
▁sara	-3279
▁thoa	-3280
▁thán	-3281
▁thối	-3282
▁twit	-3283
▁tụng	-3284
▁uyên	-3285
▁vivo	-3286
▁vuột	-3287
▁xuôi	-3288
▁đinh	-3289
▁đãng	-3290
puchia	-3291
▁akkad	-3292
▁asiad	-3293
▁chiêm	-3294
▁gmail	-3295
▁hecta	-3296
▁honda	-3297
▁infog	-3298
▁khiết	-3299
▁khoái	-3300
▁khoát	-3301
▁morin	-3302
▁nghẹn	-3303
▁ngùng	-3304
▁nobel	-3305
▁phồng	-3306
▁thạnh	-3307
▁virus	-3308
ational	-3309
▁brazil	-3310
▁laptop	-3311
▁midway	-3312
▁review	-3313
▁rublev	-3314
▁harvard	-3315
▁ottoman	-3316
▁twitter	-3317
▁windows	-3318
▁australia	-3319
▁campuchia	-3320
bu	-3321
ly	-3322
mi	-3323
oc	-3324
xi	-3325
éc	-3326
òm	-3327
ốp	-3328
ake	-3329
als	-3330
are	-3331
ays	-3332
eks	-3333
eld	-3334
eon	-3335
ies	-3336
lin	-3337
oka	-3338
raq	-3339
ris	-3340
ros	-3341
ump	-3342
zda	-3343
▁bú	-3344
▁bế	-3345
▁củ	-3346
▁er	-3347
▁gõ	-3348
▁it	-3349
▁lì	-3350
▁né	-3351
▁ob	-3352
▁rỉ	-3353
▁rủ	-3354
▁tà	-3355
▁ua	-3356
▁zo	-3357
▁úp	-3358
▁đẽ	-3359
▁ọi	-3360
acom	-3361
beco	-3362
edic	-3363
iano	-3364
sion	-3365
sung	-3366
ters	-3367
urai	-3368
▁béo	-3369
▁bấn	-3370
▁bẫy	-3371
▁bột	-3372
▁cào	-3373
▁cùi	-3374
▁cồn	-3375
▁cội	-3376
▁dãn	-3377
▁dập	-3378
▁gar	-3379
▁gầm	-3380
▁gầy	-3381
▁hlv	-3382
▁hum	-3383
▁hân	-3384
▁hãm	-3385
▁hãn	-3386
▁hít	-3387
▁hóc	-3388
▁hầm	-3389
▁hệt	-3390
▁jin	-3391
▁khe	-3392
▁láo	-3393
▁lậu	-3394
▁lụa	-3395
▁map	-3396
▁mẫn	-3397
▁ngõ	-3398
▁niu	-3399
▁nàn	-3400
▁nập	-3401
▁nới	-3402
▁ocb	-3403
▁oán	-3404
▁res	-3405
▁ráo	-3406
▁sen	-3407
▁sep	-3408
▁shi	-3409
▁sum	-3410
▁sun	-3411
▁sám	-3412
▁sâm	-3413
▁sập	-3414
▁sụt	-3415
▁thà	-3416
▁táp	-3417
▁tăm	-3418
▁tỉa	-3419
▁unk	-3420
▁vây	-3421
▁vía	-3422
▁vầy	-3423
▁xen	-3424
▁xám	-3425
▁yết	-3426
▁đhm	-3427
▁đôn	-3428
▁đầm	-3429
▁đắp	-3430
▁đếm	-3431
▁đục	-3432
aysia	-3433
inold	-3434
undai	-3435
▁amer	-3436
▁book	-3437
▁chần	-3438
▁coll	-3439
▁coun	-3440
▁fake	-3441
▁ford	-3442
▁fuku	-3443
▁gàng	-3444
▁hoay	-3445
▁iraq	-3446
▁loay	-3447
▁lỏng	-3448
▁muay	-3449
▁mỏng	-3450
▁ngãi	-3451
▁ngất	-3452
▁ngựa	-3453
▁nhạt	-3454
▁nuốt	-3455
▁phết	-3456
▁quái	-3457
▁quấy	-3458
▁rạch	-3459
▁rụng	-3460
▁suôn	-3461
▁tech	-3462
▁trồi	-3463
▁trồn	-3464
▁trợt	-3465
▁tách	-3466
▁tưng	-3467
▁tống	-3468
▁viêm	-3469
▁võng	-3470
bridge	-3471
▁crist	-3472
▁cuồng	-3473
▁group	-3474
▁khoai	-3475
▁khống	-3476
▁luồng	-3477
▁manch	-3478
▁mazda	-3479
▁ngoặt	-3480
▁ngạch	-3481
▁nhuộm	-3482
▁nhược	-3483
▁ronna	-3484
▁suông	-3485
▁thùng	-3486
▁xưởng	-3487
▁carlos	-3488
▁finals	-3489
▁nghiệt	-3490
▁nghịch	-3491
▁sabeco	-3492
▁thuyên	-3493
▁united	-3494
▁vision	-3495
▁blogger	-3496
▁fukuoka	-3497
▁humbert	-3498
▁hyundai	-3499
▁ireland	-3500
▁samsung	-3501
▁samurai	-3502
▁shipper	-3503
▁skinold	-3504
▁vietnam	-3505
▁malaysia	-3506
▁cambridge	-3507
▁cristiano	-3508
▁infograph	-3509
▁manchester	-3510
ct	-3511
fy	-3512
lc	-3513
mo	-3514
ru	-3515
ud	-3516
va	-3517
ya	-3518
ùn	-3519
ĩa	-3520
ẽn	-3521
ờn	-3522
ợn	-3523
▁ì	-3524
acc	-3525
ald	-3526
ali	-3527
anf	-3528
bia	-3529
bil	-3530
cri	-3531
den	-3532
don	-3533
gon	-3534
int	-3535
ite	-3536
lam	-3537
ley	-3538
lor	-3539
man	-3540
mit	-3541
ono	-3542
pec	-3543
pha	-3544
puy	-3545
san	-3546
tan	-3547
urs	-3548
ury	-3549
uto	-3550
vel	-3551
zza	-3552
ẫng	-3553
ếch	-3554
▁cù	-3555
▁dơ	-3556
▁dỡ	-3557
▁fe	-3558
▁fu	-3559
▁fv	-3560
▁gồ	-3561
▁kỉ	-3562
▁lơ	-3563
▁lữ	-3564
▁mè	-3565
▁mợ	-3566
▁oc	-3567
▁om	-3568
▁rò	-3569
▁sp	-3570
▁ze	-3571
▁ây	-3572
▁óc	-3573
▁đè	-3574
anoa	-3575
ario	-3576
ator	-3577
berg	-3578
hung	-3579
imet	-3580
minh	-3581
ômét	-3582
▁bún	-3583
▁băn	-3584
▁cua	-3585
▁cáp	-3586
▁cõi	-3587
▁cúc	-3588
▁don	-3589
▁dãi	-3590
▁dệt	-3591
▁fed	-3592
▁ghề	-3593
▁han	-3594
▁hao	-3595
▁hoá	-3596
▁hét	-3597
▁hốt	-3598
▁jim	-3599
▁lag	-3600
▁lau	-3601
▁lou	-3602
▁lòa	-3603
▁lôi	-3604
▁lấn	-3605
▁lấp	-3606
▁lụm	-3607
▁lức	-3608
▁meo	-3609
▁met	-3610
▁mor	-3611
▁mòn	-3612
▁mộc	-3613
▁nao	-3614
▁nhã	-3615
▁nhì	-3616
▁nhọ	-3617
▁ném	-3618
▁níu	-3619
▁năn	-3620
▁nứt	-3621
▁off	-3622
▁pau	-3623
▁phà	-3624
▁reu	-3625
▁rẫy	-3626
▁rịa	-3627
▁say	-3628
▁séc	-3629
▁súc	-3630
▁thỏ	-3631
▁trồ	-3632
▁tâu	-3633
▁tỏi	-3634
▁vặt	-3635
▁vớt	-3636
▁wal	-3637
▁xỉu	-3638
▁xổi	-3639
check	-3640
cribe	-3641
gmail	-3642
istan	-3643
lines	-3644
▁apec	-3645
▁baby	-3646
▁chin	-3647
▁chén	-3648
▁chăn	-3649
▁chầm	-3650
▁chẩm	-3651
▁chắt	-3652
▁dang	-3653
▁data	-3654
▁diễm	-3655
▁doãn	-3656
▁dưng	-3657
▁fact	-3658
▁gieo	-3659
▁giàn	-3660
▁gray	-3661
▁jack	-3662
▁jean	-3663
▁khải	-3664
▁khốn	-3665
▁lanh	-3666
▁live	-3667
▁loát	-3668
▁luis	-3669
▁lánh	-3670
▁lúng	-3671
▁miên	-3672
▁mono	-3673
▁ngóc	-3674
▁ngổn	-3675
▁ngủi	-3676
▁ngửi	-3677
▁nhồi	-3678
▁nhộn	-3679
▁nhục	-3680
▁nico	-3681
▁nuối	-3682
▁rưng	-3683
▁rước	-3684
▁siem	-3685
▁tang	-3686
▁taxi	-3687
▁test	-3688
▁thpt	-3689
▁thép	-3690
▁thạo	-3691
▁thắm	-3692
▁thục	-3693
▁toan	-3694
▁trợn	-3695
▁uổng	-3696
▁xiao	-3697
▁điêu	-3698
▁đoan	-3699
emedic	-3700
▁audio	-3701
▁conan	-3702
▁dupuy	-3703
▁giáng	-3704
▁grand	-3705
▁grant	-3706
▁hello	-3707
▁khinh	-3708
▁khoăn	-3709
▁nghẽn	-3710
▁ngách	-3711
▁ocean	-3712
▁phẳng	-3713
▁pizza	-3714
▁plông	-3715
▁quyện	-3716
▁sacom	-3717
▁seven	-3718
▁sướng	-3719
▁thoắt	-3720
▁toang	-3721
▁treks	-3722
▁trump	-3723
▁trịnh	-3724
▁trừng	-3725
minhtam	-3726
▁berlin	-3727
▁edtech	-3728
▁maputo	-3729
▁munich	-3730
▁nghiền	-3731
▁resort	-3732
▁series	-3733
▁shoppe	-3734
▁stalin	-3735
▁summit	-3736
▁kananoa	-3737
▁kilômét	-3738
▁reuters	-3739
▁zalopay	-3740
emedicine	-3741
▁airlines	-3742
▁novaland	-3743
▁audiobook	-3744
▁masterise	-3745
▁sacombank	-3746
▁vuminhtam	-3747
▁australian	-3748
▁infographic	-3749
▁telemedicine	-3750
bc	-3751
ds	-3752
ft	-3753
ka	-3754
tv	-3755
ũa	-3756
▁ú	-3757
anc	-3758
asa	-3759
bba	-3760
biz	-3761
bon	-3762
cow	-3763
der	-3764
ear	-3765
emi	-3766
eor	-3767
ett	-3768
ext	-3769
ght	-3770
hop	-3771
ilk	-3772
ill	-3773
jek	-3774
mar	-3775
oga	-3776
ord	-3777
rey	-3778
try	-3779
tte	-3780
vit	-3781
wat	-3782
zon	-3783
õng	-3784
ươm	-3785
ườm	-3786
▁ab	-3787
▁ci	-3788
▁cx	-3789
▁cọ	-3790
▁cừ	-3791
▁dô	-3792
▁dỗ	-3793
▁ev	-3794
▁hù	-3795
▁hú	-3796
▁hẻ	-3797
▁hỉ	-3798
▁kẽ	-3799
▁nô	-3800
▁sw	-3801
▁sì	-3802
▁tv	-3803
▁tê	-3804
▁vú	-3805
▁vỹ	-3806
▁wi	-3807
▁xê	-3808
▁xì	-3809
▁ét	-3810
▁ập	-3811
adal	-3812
atar	-3813
emin	-3814
fael	-3815
ican	-3816
ilyn	-3817
ival	-3818
iver	-3819
llis	-3820
mười	-3821
nock	-3822
poti	-3823
site	-3824
uyệt	-3825
yota	-3826
▁atm	-3827
▁bar	-3828
▁bói	-3829
▁bôi	-3830
▁bừa	-3831
▁ceo	-3832
▁cro	-3833
▁cày	-3834
▁côn	-3835
▁cạm	-3836
▁cụt	-3837
▁dop	-3838
▁dán	-3839
▁dép	-3840
▁dẫm	-3841
▁edm	-3842
▁gat	-3843
▁giỏ	-3844
▁gác	-3845
▁gập	-3846
▁gục	-3847
▁hên	-3848
▁hạm	-3849
▁khê	-3850
▁kíp	-3851
▁las	-3852
▁lót	-3853
▁lụy	-3854
▁mad	-3855
▁mão	-3856
▁ngơ	-3857
▁ngỏ	-3858
▁ngụ	-3859
▁nhả	-3860
▁nor	-3861
▁nạt	-3862
▁nắp	-3863
▁ont	-3864
▁out	-3865
▁pal	-3866
▁pga	-3867
▁quệ	-3868
▁rục	-3869
▁sup	-3870
▁sáp	-3871
▁sởi	-3872
▁thô	-3873
▁tia	-3874
▁tum	-3875
▁tẹo	-3876
▁uav	-3877
▁ván	-3878
▁vãn	-3879
▁vét	-3880
▁wim	-3881
▁xoa	-3882
▁xịn	-3883
▁xịt	-3884
▁ách	-3885
▁đao	-3886
▁đáy	-3887
▁đèo	-3888
▁đớn	-3889
amilk	-3890
ancis	-3891
athon	-3892
encer	-3893
estay	-3894
kshop	-3895
later	-3896
lding	-3897
llies	-3898
phael	-3899
tamin	-3900
▁char	-3901
▁chua	-3902
▁chản	-3903
▁chậc	-3904
▁chốc	-3905
▁chốn	-3906
▁cont	-3907
▁copy	-3908
▁dico	-3909
▁fest	-3910
▁fifa	-3911
▁geor	-3912
▁giặc	-3913
▁giọt	-3914
▁giục	-3915
▁haha	-3916
▁hẫng	-3917
▁john	-3918
▁khay	-3919
▁kilo	-3920
▁lằng	-3921
▁măng	-3922
▁nali	-3923
▁nasa	-3924
▁ngẫu	-3925
▁nhậu	-3926
▁nong	-3927
▁phai	-3928
▁phao	-3929
▁quạt	-3930
▁rườm	-3931
▁siết	-3932
▁slam	-3933
▁subs	-3934
▁sườn	-3935
▁tele	-3936
▁text	-3937
▁thửa	-3938
▁tiệt	-3939
▁trau	-3940
▁tràm	-3941
▁trùm	-3942
▁trấu	-3943
▁tuột	-3944
▁tạng	-3945
▁vacc	-3946
▁xoáy	-3947
▁xông	-3948
▁yoga	-3949
bledon	-3950
ingrad	-3951
potify	-3952
ursera	-3953
▁ansan	-3954
▁biếng	-3955
▁boron	-3956
▁chiên	-3957
▁chánh	-3958
▁giếng	-3959
▁giềng	-3960
▁gojek	-3961
▁indie	-3962
▁influ	-3963
▁knock	-3964
▁manga	-3965
▁nadal	-3966
▁ngàng	-3967
▁nhằng	-3968
▁nương	-3969
▁obama	-3970
▁phiếm	-3971
▁qatar	-3972
▁quách	-3973
▁santa	-3974
▁sarah	-3975
▁schul	-3976
▁thánh	-3977
▁thỉnh	-3978
▁times	-3979
▁titan	-3980
▁triết	-3981
▁xuyệt	-3982
combank	-3983
▁andrey	-3984
▁carbon	-3985
▁cullis	-3986
▁donald	-3987
▁haizzz	-3988
▁khoáng	-3989
▁khương	-3990
▁lionel	-3991
▁modric	-3992
▁moscow	-3993
▁nguyệt	-3994
▁rafael	-3995
▁toyota	-3996
▁country	-3997
▁francis	-3998
▁holding	-3999
▁marilyn	-4000
▁ontario	-4001
▁raphael	-4002
▁showbiz	-4003
▁siemens	-4004
▁spotify	-4005
▁ukraina	-4006
▁vaccine	-4007
▁vitamin	-4008
▁website	-4009
▁bellator	-4010
▁centimet	-4011
▁chillies	-4012
▁coursera	-4013
▁festival	-4014
▁homestay	-4015
▁marathon	-4016
▁vinamilk	-4017
▁workshop	-4018
▁factcheck	-4019
▁subscribe	-4020
▁wimbledon	-4021
▁influencer	-4022
▁stalingrad	-4023
▁techcombank	-4024
aw	-4025
hy	-4026
ip	-4027
iy	-4028
ko	-4029
lt	-4030
mw	-4031
sm	-4032
ve	-4033
xu	-4034
za	-4035
zh	-4036
ía	-4037
ơm	-4038
ộp	-4039
▁ế	-4040
▁ớ	-4041
ade	-4042
age	-4043
blo	-4044
cci	-4045
chị	-4046
dol	-4047
dra	-4048
eff	-4049
emo	-4050
ers	-4051
eth	-4052
how	-4053
hyt	-4054
lon	-4055
mer	-4056
one	-4057
owa	-4058
ria	-4059
riy	-4060
rna	-4061
rom	-4062
run	-4063
sin	-4064
sip	-4065
uth	-4066
vac	-4067
wer	-4068
ướn	-4069
▁af	-4070
▁by	-4071
▁fc	-4072
▁hd	-4073
▁há	-4074
▁hẹ	-4075
▁hờ	-4076
▁ii	-4077
▁io	-4078
▁ju	-4079
▁kè	-4080
▁ló	-4081
▁lự	-4082
▁mg	-4083
▁mó	-4084
▁ne	-4085
▁rô	-4086
▁rể	-4087
▁rễ	-4088
▁sọ	-4089
▁tk	-4090
▁té	-4091
▁um	-4092
▁up	-4093
▁vp	-4094
▁vờ	-4095
▁xl	-4096
▁áy	-4097
▁ắp	-4098
▁ớt	-4099
alex	-4100
ance	-4101
atia	-4102
auty	-4103
byte	-4104
cker	-4105
egas	-4106
ency	-4107
esel	-4108
eter	-4109
ital	-4110
ltra	-4111
ness	-4112
ngày	-4113
nham	-4114
roid	-4115
sper	-4116
ssan	-4117
viet	-4118
ward	-4119
▁ang	-4120
▁ben	-4121
▁bmw	-4122
▁bro	-4123
▁bám	-4124
▁bìa	-4125
▁bót	-4126
▁bùn	-4127
▁bấp	-4128
▁bẩm	-4129
▁bịu	-4130
▁bộc	-4131
▁bộn	-4132
▁cen	-4133
▁cod	-4134
▁cắp	-4135
▁cốc	-4136
▁dãy	-4137
▁dèo	-4138
▁dạt	-4139
▁dải	-4140
▁flc	-4141
▁gad	-4142
▁giã	-4143
▁giê	-4144
▁giở	-4145
▁god	-4146
▁gắm	-4147
▁gốm	-4148
▁gộp	-4149
▁hẻm	-4150
▁hời	-4151
▁joe	-4152
▁kép	-4153
▁lun	-4154
▁lặn	-4155
▁lụi	-4156
▁mit	-4157
▁mri	-4158
▁nav	-4159
▁nhẽ	-4160
▁nhủ	-4161
▁náy	-4162
▁nạo	-4163
▁nấy	-4164
▁nồi	-4165
▁nức	-4166
▁oai	-4167
▁oằn	-4168
▁phì	-4169
▁phở	-4170
▁quẻ	-4171
▁quỳ	-4172
▁rat	-4173
▁rạn	-4174
▁rần	-4175
▁rỗi	-4176
▁scb	-4177
▁sin	-4178
▁sẫm	-4179
▁sồi	-4180
▁sụp	-4181
▁tem	-4182
▁teo	-4183
▁toa	-4184
▁tom	-4185
▁tru	-4186
▁tuỳ	-4187
▁tèo	-4188
▁tản	-4189
▁tần	-4190
▁uốn	-4191
▁vtv	-4192
▁vâu	-4193
▁víu	-4194
▁vóc	-4195
▁vấp	-4196
▁vỏn	-4197
▁xua	-4198
▁xôn	-4199
▁óng	-4200
▁đĩa	-4201
▁đũa	-4202
▁đạm	-4203
▁đần	-4204
▁đệm	-4205
▁độn	-4206
▁ươm	-4207
▁ống	-4208
ainer	-4209
anger	-4210
anmar	-4211
pping	-4212
ravel	-4213
tháng	-4214
▁alex	-4215
▁bhyt	-4216
▁buýt	-4217
▁bàng	-4218
▁bênh	-4219
▁chip	-4220
▁chùm	-4221
▁chổi	-4222
▁chội	-4223
▁cẳng	-4224
▁demo	-4225
▁down	-4226
▁erik	-4227
▁ghen	-4228
▁giga	-4229
▁gành	-4230
▁hoạn	-4231
▁idol	-4232
▁iran	-4233
▁khoẻ	-4234
▁khất	-4235
▁khắt	-4236
▁kiêu	-4237
▁loét	-4238
▁lõng	-4239
▁mông	-4240
▁mướt	-4241
▁mắng	-4242
▁nell	-4243
▁ngòi	-4244
▁ngói	-4245
▁ngón	-4246
▁ngốc	-4247
▁ngục	-4248
▁nhâm	-4249
▁nhét	-4250
▁nick	-4251
▁phun	-4252
▁plus	-4253
▁quẩn	-4254
▁quẹt	-4255
▁ròng	-4256
▁sant	-4257
▁shar	-4258
▁shor	-4259
▁star	-4260
▁stat	-4261
▁sừng	-4262
▁thui	-4263
▁thạc	-4264
▁thắp	-4265
▁thẹn	-4266
▁thủa	-4267
▁time	-4268
▁tiệu	-4269
▁tước	-4270
▁vách	-4271
▁vãng	-4272
▁văng	-4273
▁wang	-4274
▁well	-4275
▁wifi	-4276
▁xiết	-4277
▁yong	-4278
▁zoom	-4279
egraph	-4280
nament	-4281
▁buồng	-4282
▁chris	-4283
▁chuộc	-4284
▁chững	-4285
▁david	-4286
▁harry	-4287
▁hoằng	-4288
▁jobba	-4289
▁khanh	-4290
▁khiếm	-4291
▁khoắn	-4292
▁khuya	-4293
▁khuẩn	-4294
▁kiềng	-4295
▁maroc	-4296
▁metro	-4297
▁mobil	-4298
▁north	-4299
▁phung	-4300
▁point	-4301
▁thiêu	-4302
▁thính	-4303
▁thảnh	-4304
▁thặng	-4305
▁tiger	-4306
▁tiềng	-4307
▁totte	-4308
▁tower	-4309
▁ultra	-4310
▁vegas	-4311
▁wales	-4312
▁woods	-4313
▁xướng	-4314
▁agency	-4315
▁beauty	-4316
▁casper	-4317
▁center	-4318
▁chuồng	-4319
▁delvac	-4320
▁diesel	-4321
▁doping	-4322
▁gadama	-4323
▁garros	-4324
▁khoang	-4325
▁madrid	-4326
▁marker	-4327
▁modern	-4328
▁nguyền	-4329
▁ngưởng	-4330
▁ngượng	-4331
▁ranger	-4332
▁roland	-4333
▁sepria	-4334
▁serbia	-4335
▁steven	-4336
▁taylor	-4337
▁xiaomi	-4338
▁android	-4339
▁central	-4340
▁checkic	-4341
▁croatia	-4342
▁masteri	-4343
▁myanmar	-4344
▁scandal	-4345
▁telecom	-4346
▁zealand	-4347
▁american	-4348
▁container	-4349
▁telegraph	-4350
▁tottenham	-4351
▁vietravel	-4352
▁tournament	-4353
▁international	-4354
dạ	-4355
ef	-4356
ey	-4357
hc	-4358
ij	-4359
iq	-4360
ny	-4361
oo	-4362
tô	-4363
xp	-4364
xy	-4365
òe	-4366
úl	-4367
ặm	-4368
▁í	-4369
aan	-4370
aki	-4371
akm	-4372
ala	-4373
alv	-4374
aly	-4375
aps	-4376
ars	-4377
asc	-4378
ash	-4379
auc	-4380
bar	-4381
bes	-4382
bio	-4383
box	-4384
cay	-4385
chi	-4386
ckp	-4387
con	-4388
cro	-4389
dam	-4390
dri	-4391
dro	-4392
eah	-4393
ein	-4394
elo	-4395
eme	-4396
ero	-4397
esi	-4398
eta	-4399
ete	-4400
gey	-4401
ico	-4402
igo	-4403
iki	-4404
ime	-4405
ini	-4406
itt	-4407
izh	-4408
jad	-4409
kun	-4410
lat	-4411
lee	-4412
ler	-4413
les	-4414
lie	-4415
lls	-4416
log	-4417
low	-4418
lần	-4419
nap	-4420
nes	-4421
nic	-4422
nor	-4423
nti	-4424
oma	-4425
ool	-4426
ove	-4427
pes	-4428
ppa	-4429
ree	-4430
ret	-4431
riv	-4432
ron	-4433
sch	-4434
set	-4435
sid	-4436
tay	-4437
urg	-4438
uri	-4439
urz	-4440
van	-4441
vin	-4442
xin	-4443
xon	-4444
zak	-4445
▁br	-4446
▁cộ	-4447
▁dr	-4448
▁ei	-4449
▁en	-4450
▁ex	-4451
▁hý	-4452
▁hủ	-4453
▁kg	-4454
▁ko	-4455
▁lí	-4456
▁mv	-4457
▁mí	-4458
▁mụ	-4459
▁of	-4460
▁os	-4461
▁pa	-4462
▁pe	-4463
▁pn	-4464
▁rx	-4465
▁ry	-4466
▁uể	-4467
▁ve	-4468
▁vế	-4469
▁vỉ	-4470
▁vỗ	-4471
▁xé	-4472
▁úy	-4473
▁đả	-4474
▁đố	-4475
▁đỳ	-4476
▁ắt	-4477
▁ỏi	-4478
▁ốp	-4479
▁ớn	-4480
acdo	-4481
ador	-4482
agen	-4483
agni	-4484
anfu	-4485
anha	-4486
anul	-4487
aoke	-4488
apan	-4489
asus	-4490
atic	-4491
azon	-4492
burg	-4493
buri	-4494
chel	-4495
dolf	-4496
ecto	-4497
effi	-4498
enia	-4499
esco	-4500
ghan	-4501
ghts	-4502
gina	-4503
gous	-4504
guez	-4505
hnat	-4506
hony	-4507
iago	-4508
icef	-4509
imea	-4510
inst	-4511
lger	-4512
lick	-4513
lish	-4514
mart	-4515
ndon	-4516
nexp	-4517
ntid	-4518
oday	-4519
oniq	-4520
onos	-4521
page	-4522
pera	-4523
ptpp	-4524
reen	-4525
rise	-4526
risp	-4527
udio	-4528
uyến	-4529
veda	-4530
vern	-4531
zada	-4532
▁add	-4533
▁aic	-4534
▁ant	-4535
▁art	-4536
▁avi	-4537
▁bal	-4538
▁bla	-4539
▁bua	-4540
▁bón	-4541
▁bặc	-4542
▁bọc	-4543
▁bới	-4544
▁cad	-4545
▁cas	-4546
▁cat	-4547
▁cru	-4548
▁cáu	-4549
▁còi	-4550
▁cún	-4551
▁cặn	-4552
▁cối	-4553
▁dhc	-4554
▁dra	-4555
▁dui	-4556
▁dào	-4557
▁dâm	-4558
▁dấn	-4559
▁dằn	-4560
▁dừa	-4561
▁gào	-4562
▁góa	-4563
▁gôn	-4564
▁gút	-4565
▁gấu	-4566
▁hal	-4567
▁hey	-4568
▁hin	-4569
▁hoà	-4570
▁hpv	-4571
▁htp	-4572
▁háo	-4573
▁hén	-4574
▁hăm	-4575
▁hạc	-4576
▁hẩu	-4577
▁hẻo	-4578
▁hụi	-4579
▁hức	-4580
▁iot	-4581
▁jan	-4582
▁jut	-4583
▁kai	-4584
▁kyn	-4585
▁kèo	-4586
▁lee	-4587
▁leg	-4588
▁lóc	-4589
▁lùm	-4590
▁lắc	-4591
▁lều	-4592
▁lợn	-4593
▁lứt	-4594
▁mex	-4595
▁mil	-4596
▁mìn	-4597
▁mải	-4598
▁mịt	-4599
▁mồi	-4600
▁mồm	-4601
▁mồn	-4602
▁ngà	-4603
▁ngó	-4604
▁ngự	-4605
▁nhũ	-4606
▁nám	-4607
▁nèo	-4608
▁nít	-4609
▁nón	-4610
▁nặn	-4611
▁nẹo	-4612
▁nết	-4613
▁oli	-4614
▁otp	-4615
▁oài	-4616
▁oát	-4617
▁pat	-4618
▁phũ	-4619
▁phỉ	-4620
▁pir	-4621
▁pow	-4622
▁roy	-4623
▁sms	-4624
▁sno	-4625
▁sol	-4626
▁spa	-4627
▁são	-4628
▁sưa	-4629
▁sảo	-4630
▁sấu	-4631
▁sầm	-4632
▁sỏi	-4633
▁sủa	-4634
▁sửu	-4635
▁sực	-4636
▁tae	-4637
▁trề	-4638
▁tòi	-4639
▁tấu	-4640
▁tẹt	-4641
▁tếu	-4642
▁tốp	-4643
▁uất	-4644
▁uầy	-4645
▁val	-4646
▁von	-4647
▁vòm	-4648
▁vạc	-4649
▁vần	-4650
▁vắc	-4651
▁vắt	-4652
▁vịt	-4653
▁who	-4654
▁wto	-4655
▁xeo	-4656
▁xát	-4657
▁xôi	-4658
▁xồn	-4659
▁yểu	-4660
▁zoê	-4661
▁đúp	-4662
▁đậy	-4663
▁ướp	-4664
anama	-4665
arden	-4666
barak	-4667
burne	-4668
cayan	-4669
chrom	-4670
ction	-4671
emier	-4672
ender	-4673
entor	-4674
illac	-4675
isian	-4676
izhia	-4677
jadip	-4678
lippe	-4679
ptech	-4680
tlett	-4681
urzel	-4682
vitto	-4683
▁aham	-4684
▁anti	-4685
▁bits	-4686
▁biếm	-4687
▁biếu	-4688
▁brad	-4689
▁báng	-4690
▁bính	-4691
▁cauc	-4692
▁chan	-4693
▁chàn	-4694
▁cháo	-4695
▁chèn	-4696
▁chóc	-4697
▁chói	-4698
▁chùn	-4699
▁chơn	-4700
▁chạp	-4701
▁chải	-4702
▁chọc	-4703
▁chọt	-4704
▁cost	-4705
▁cuộn	-4706
▁cạng	-4707
▁dara	-4708
▁dato	-4709
▁deal	-4710
▁dông	-4711
▁food	-4712
▁full	-4713
▁fury	-4714
▁ganh	-4715
▁gaza	-4716
▁gồng	-4717
▁huân	-4718
▁hèng	-4719
▁inch	-4720
▁insi	-4721
▁jazz	-4722
▁jude	-4723
▁kane	-4724
▁khét	-4725
▁khịa	-4726
▁kiềm	-4727
▁kiốt	-4728
▁kriv	-4729
▁lily	-4730
▁luna	-4731
▁lộng	-4732
▁manh	-4733
▁mell	-4734
▁meme	-4735
▁muồi	-4736
▁mướn	-4737
▁nano	-4738
▁ngạn	-4739
▁ngạo	-4740
▁ngấm	-4741
▁ngủn	-4742
▁ngửa	-4743
▁nhai	-4744
▁nhài	-4745
▁nhào	-4746
▁nhòe	-4747
▁nhút	-4748
▁nhăm	-4749
▁nhảm	-4750
▁nhấm	-4751
▁nhện	-4752
▁nhờn	-4753
▁nung	-4754
▁núng	-4755
▁nựng	-4756
▁pasc	-4757
▁paul	-4758
▁phàn	-4759
▁phất	-4760
▁phớt	-4761
▁pier	-4762
▁pitt	-4763
▁post	-4764
▁quài	-4765
▁quây	-4766
▁real	-4767
▁rune	-4768
▁ruud	-4769
▁rách	-4770
▁rịch	-4771
▁salv	-4772
▁shin	-4773
▁snap	-4774
▁swin	-4775
▁sòng	-4776
▁sưng	-4777
▁sửng	-4778
▁thìn	-4779
▁thóc	-4780
▁thơi	-4781
▁thảy	-4782
▁thỏi	-4783
▁town	-4784
▁trèo	-4785
▁trút	-4786
▁trắm	-4787
▁táng	-4788
▁tưới	-4789
▁vina	-4790
▁visa	-4791
▁viền	-4792
▁vung	-4793
▁xuýt	-4794
▁xửng	-4795
▁yeah	-4796
▁yury	-4797
▁đính	-4798
▁đọng	-4799
agnier	-4800
akmaps	-4801
aldoon	-4802
andall	-4803
anford	-4804
anulty	-4805
dragon	-4806
inbank	-4807
ingham	-4808
isiana	-4809
omberg	-4810
sidade	-4811
ttoday	-4812
urgeon	-4813
úlveda	-4814
▁abram	-4815
▁adolf	-4816
▁analo	-4817
▁angel	-4818
▁bayer	-4819
▁biden	-4820
▁chang	-4821
▁cheng	-4822
▁choạn	-4823
▁chích	-4824
▁chảnh	-4825
▁cptpp	-4826
▁crisp	-4827
▁delhi	-4828
▁einst	-4829
▁gates	-4830
▁green	-4831
▁helen	-4832
▁homes	-4833
▁honor	-4834
▁hydro	-4835
▁ihnat	-4836
▁inbox	-4837
▁ioniq	-4838
▁japan	-4839
▁khiên	-4840
▁laura	-4841
▁lenin	-4842
▁luyến	-4843
▁micro	-4844
▁mường	-4845
▁nacdo	-4846
▁nghẹt	-4847
▁ngoạn	-4848
▁ngọng	-4849
▁nhiếu	-4850
▁nhãng	-4851
▁nhúng	-4852
▁nhỉnh	-4853
▁onsen	-4854
▁paulo	-4855
▁phàng	-4856
▁phúng	-4857
▁phăng	-4858
▁rodri	-4859
▁ronto	-4860
▁rover	-4861
▁scott	-4862
▁suriy	-4863
▁sương	-4864
▁tntid	-4865
▁trend	-4866
▁triền	-4867
▁trành	-4868
▁tyree	-4869
▁tyson	-4870
▁vnexp	-4871
▁wells	-4872
▁zapor	-4873
denburg	-4874
lateria	-4875
▁afghan	-4876
▁amazon	-4877
▁baemin	-4878
▁centre	-4879
▁cheung	-4880
▁choáng	-4881
▁christ	-4882
▁crimea	-4883
▁daniel	-4884
▁forbes	-4885
▁gaming	-4886
▁garden	-4887
▁gareth	-4888
▁govern	-4889
▁hassan	-4890
▁hdbank	-4891
▁holger	-4892
▁indian	-4893
▁khoanh	-4894
▁khuếch	-4895
▁kimono	-4896
▁kynlee	-4897
▁lazada	-4898
▁london	-4899
▁marina	-4900
▁mentor	-4901
▁mexico	-4902
▁navara	-4903
▁nicola	-4904
▁pieter	-4905
▁quecto	-4906
▁rating	-4907
▁school	-4908
▁sergey	-4909
▁shorts	-4910
▁snopes	-4911
▁studio	-4912
▁unesco	-4913
▁unicef	-4914
▁univer	-4915
▁valley	-4916
▁wurzel	-4917
▁ahamove	-4918
▁amerigo	-4919
▁anjadip	-4920
▁anthony	-4921
▁babylon	-4922
▁boronya	-4923
▁charlie	-4924
▁chuanfu	-4925
▁collete	-4926
▁divitto	-4927
▁fanpage	-4928
▁gagnier	-4929
▁ghanama	-4930
▁karaoke	-4931
▁lucayan	-4932
▁mubarak	-4933
▁nghiêng	-4934
▁offline	-4935
▁pascale	-4936
▁piranha	-4937
▁premier	-4938
▁quester	-4939
▁randall	-4940
▁sunrise	-4941
▁tempera	-4942
▁titanic	-4943
▁vinmart	-4944
chromatic	-4945
▁bartlett	-4946
▁bitsbook	-4947
▁caucasus	-4948
▁columbia	-4949
▁einstein	-4950
▁gameshow	-4951
▁georgina	-4952
▁gigabyte	-4953
▁insights	-4954
▁khaldoon	-4955
▁krivonos	-4956
▁mcanulty	-4957
▁philippe	-4958
▁proptech	-4959
▁salvador	-4960
▁santiago	-4961
▁schuling	-4962
▁shopping	-4963
▁stanford	-4964
▁sturgeon	-4965
▁analogous	-4966
▁bloomberg	-4967
▁chattoday	-4968
▁colateria	-4969
▁louisiana	-4970
▁rodriguez	-4971
▁sepúlveda	-4972
▁swinburne	-4973
▁vinaphone	-4974
▁vnexpress	-4975
▁bellingham	-4976
▁governance	-4977
▁hindenburg	-4978
▁snapdragon	-4979
▁vietinbank	-4980
▁zaporizhia	-4981
▁afghanistan	-4982
▁suriyakmaps	-4983
▁vietcombank	-4984
▁universidade	-4985
▁monochromatic	-4986
aa	-4987
cm	-4988
du	-4989
dv	-4990
fo	-4991
fé	-4992
gi	-4993
gr	-4994
ji	-4995
ky	-4996
pa	-4997
ps	-4998
qg	-4999
bé	-5000
rl	-5001
rm	-5002
sg	-5003
td	-5004
vl	-5005
vn	-5006
wa	-5007
xf	-5008
yr	-5009
yz	-5010
ze	-5011
íp	-5012
õa	-5013
ùp	-5014
ổm	-5015
ựt	-5016
▁ố	-5017
▁ổ	-5018
aba	-5019
acy	-5020
ado	-5021
air	-5022
ami	-5023
ana	-5024
ane	-5025
ans	-5026
arl	-5027
ary	-5028
asu	-5029
ati	-5030
atu	-5031
aux	-5032
bek	-5033
bin	-5034
bri	-5035
cia	-5036
ckt	-5037
cky	-5038
cli	-5039
cso	-5040
dar	-5041
dia	-5042
dym	-5043
een	-5044
eim	-5045
eli	-5046
els	-5047
enf	-5048
enl	-5049
erc	-5050
ere	-5051
eri	-5052
erm	-5053
ert	-5054
eve	-5055
fer	-5056
gan	-5057
gro	-5058
gya	-5059
han	-5060
hei	-5061
hen	-5062
ica	-5063
ick	-5064
ide	-5065
ids	-5066
ily	-5067
ita	-5068
ith	-5069
itz	-5070
ive	-5071
jam	-5072
ker	-5073
ksw	-5074
law	-5075
led	-5076
lly	-5077
lub	-5078
nei	-5079
ner	-5080
nie	-5081
nou	-5082
ola	-5083
pad	-5084
per	-5085
pol	-5086
ppo	-5087
rio	-5088
row	-5089
rtm	-5090
sey	-5091
shi	-5092
sic	-5093
sie	-5094
sis	-5095
sor	-5096
sso	-5097
suk	-5098
tai	-5099
tec	-5100
tha	-5101
thẻ	-5102
tis	-5103
tom	-5104
uan	-5105
uij	-5106
uki	-5107
uni	-5108
urt	-5109
use	-5110
via	-5111
won	-5112
yle	-5113
ênh	-5114
ượm	-5115
ịnh	-5116
▁ap	-5117
▁ay	-5118
▁bl	-5119
▁cl	-5120
▁dế	-5121
▁dề	-5122
▁fa	-5123
▁fo	-5124
▁gm	-5125
▁gả	-5126
▁gờ	-5127
▁hỏ	-5128
▁hố	-5129
▁ic	-5130
▁id	-5131
▁ji	-5132
▁ku	-5133
▁ky	-5134
▁lở	-5135
▁lợ	-5136
▁lứ	-5137
▁me	-5138
▁mh	-5139
▁mĩ	-5140
▁mệ	-5141
▁mọ	-5142
▁nể	-5143
▁nệ	-5144
▁nớ	-5145
▁pd	-5146
▁pê	-5147
▁pù	-5148
▁qc	-5149
▁qr	-5150
▁rã	-5151
▁rê	-5152
▁rồ	-5153
▁sô	-5154
▁uz	-5155
▁vb	-5156
▁vá	-5157
▁vù	-5158
▁vồ	-5159
▁we	-5160
▁wo	-5161
▁xù	-5162
▁xỏ	-5163
▁zu	-5164
▁ùa	-5165
▁ùn	-5166
▁đĩ	-5167
▁ạt	-5168
aday	-5169
adea	-5170
amus	-5171
anho	-5172
anks	-5173
anov	-5174
arez	-5175
arld	-5176
asun	-5177
ayak	-5178
ccio	-5179
cept	-5180
ciat	-5181
cola	-5182
comm	-5183
csov	-5184
czak	-5185
dset	-5186
edan	-5187
edin	-5188
edit	-5189
edmi	-5190
eens	-5191
eing	-5192
elía	-5193
ence	-5194
endo	-5195
ends	-5196
enna	-5197
enzo	-5198
erat	-5199
esol	-5200
ette	-5201
fest	-5202
ffel	-5203
gast	-5204
gers	-5205
guay	-5206
ilas	-5207
imex	-5208
ique	-5209
iser	-5210
iểng	-5211
jime	-5212
lcan	-5213
ling	-5214
lksw	-5215
luku	-5216
mosa	-5217
nold	-5218
odel	-5219
oker	-5220
olin	-5221
omas	-5222
opyz	-5223
rack	-5224
ring	-5225
rior	-5226
rona	-5227
sail	-5228
stel	-5229
tani	-5230
uman	-5231
utin	-5232
uyễn	-5233
xing	-5234
zuki	-5235
zzie	-5236
▁aaa	-5237
▁abu	-5238
▁alv	-5239
▁aqu	-5240
▁ari	-5241
▁arm	-5242
▁bac	-5243
▁bai	-5244
▁blu	-5245
▁bok	-5246
▁bri	-5247
▁bru	-5248
▁bus	-5249
▁bìu	-5250
▁bùa	-5251
▁bấu	-5252
▁bổn	-5253
▁ces	-5254
▁cii	-5255
▁căm	-5256
▁cạo	-5257
▁cấn	-5258
▁cằn	-5259
▁cộc	-5260
▁cợt	-5261
▁dal	-5262
▁dar	-5263
▁der	-5264
▁dát	-5265
▁dìu	-5266
▁dòm	-5267
▁dõa	-5268
▁dĩu	-5269
▁dưa	-5270
▁dấm	-5271
▁dẫu	-5272
▁dọi	-5273
▁dốt	-5274
▁ecb	-5275
▁eco	-5276
▁edu	-5277
▁eng	-5278
▁ern	-5279
▁esg	-5280
▁evn	-5281
▁far	-5282
▁fit	-5283
▁fps	-5284
▁fri	-5285
▁gau	-5286
▁gem	-5287
▁ghn	-5288
▁giò	-5289
▁giỗ	-5290
▁gor	-5291
▁gse	-5292
▁gài	-5293
▁gán	-5294
▁gáy	-5295
▁gót	-5296
▁găm	-5297
▁gật	-5298
▁gậy	-5299
▁gọt	-5300
▁gốt	-5301
▁gớm	-5302
▁hag	-5303
▁hiv	-5304
▁hun	-5305
▁héo	-5306
▁hót	-5307
▁húc	-5308
▁hấn	-5309
▁hờn	-5310
▁hợt	-5311
▁iii	-5312
▁ilo	-5313
▁isa	-5314
▁iểm	-5315
▁jac	-5316
▁jay	-5317
▁jer	-5318
▁jon	-5319
▁kam	-5320
▁kee	-5321
▁khố	-5322
▁khờ	-5323
▁kun	-5324
▁két	-5325
▁lat	-5326
▁lem	-5327
▁lim	-5328
▁lor	-5329
▁lép	-5330
▁lìm	-5331
▁lạn	-5332
▁lẩu	-5333
▁lẫy	-5334
▁lốc	-5335
▁lốp	-5336
▁lồm	-5337
▁lợp	-5338
▁mek	-5339
▁mép	-5340
▁mìm	-5341
▁mẩu	-5342
▁mỉa	-5343
▁mụn	-5344
▁mứt	-5345
▁nat	-5346
▁nem	-5347
▁net	-5348
▁ngả	-5349
▁nhó	-5350
▁nhơ	-5351
▁nhữ	-5352
▁nvl	-5353
▁nén	-5354
▁nôi	-5355
▁nơm	-5356
▁nắn	-5357
▁nớp	-5358
▁oxf	-5359
▁pen	-5360
▁plx	-5361
▁pnj	-5362
▁pop	-5363
▁por	-5364
▁ram	-5365
▁ren	-5366
▁rob	-5367
▁roi	-5368
▁rus	-5369
▁răn	-5370
▁rơm	-5371
▁rạp	-5372
▁rốn	-5373
▁rột	-5374
▁rụi	-5375
▁scg	-5376
▁sel	-5377
▁sky	-5378
▁sme	-5379
▁sue	-5380
▁sán	-5381
▁sìu	-5382
▁síp	-5383
▁sạt	-5384
▁sải	-5385
▁sấy	-5386
▁sần	-5387
▁sớt	-5388
▁ten	-5389
▁thệ	-5390
▁thộ	-5391
▁toả	-5392
▁trổ	-5393
▁trộ	-5394
▁trự	-5395
▁tẩm	-5396
▁tắn	-5397
▁tột	-5398
▁tủy	-5399
▁uae	-5400
▁uru	-5401
▁vff	-5402
▁vfs	-5403
▁vks	-5404
▁vác	-5405
▁vơi	-5406
▁vấy	-5407
▁vỉa	-5408
▁vờn	-5409
▁wbc	-5410
▁wow	-5411
▁xls	-5412
▁xui	-5413
▁xói	-5414
▁xẩm	-5415
▁xẻo	-5416
▁xỉa	-5417
▁xốp	-5418
▁yen	-5419
▁zel	-5420
▁úng	-5421
▁đay	-5422
▁đaị	-5423
▁điu	-5424
▁đái	-5425
▁đút	-5426
▁đẩu	-5427
▁đẫm	-5428
aanor	-5429
ababy	-5430
adise	-5431
akira	-5432
alaxy	-5433
aledu	-5434
ander	-5435
andes	-5436
annou	-5437
atile	-5438
block	-5439
briel	-5440
burin	-5441
dymyr	-5442
earch	-5443
emiro	-5444
encil	-5445
ensky	-5446
entry	-5447
erdam	-5448
field	-5449
genta	-5450
higya	-5451
idenh	-5452
ikipe	-5453
illus	-5454
ilsen	-5455
ition	-5456
ivery	-5457
iyasu	-5458
mobil	-5459
onson	-5460
pearl	-5461
quang	-5462
quita	-5463
riday	-5464
rique	-5465
schko	-5466
setti	-5467
shine	-5468
sipan	-5469
strad	-5470
thers	-5471
uccio	-5472
verev	-5473
vinam	-5474
visin	-5475
wards	-5476
▁aids	-5477
▁alle	-5478
▁arab	-5479
▁asso	-5480
▁aygo	-5481
▁bale	-5482
▁bern	-5483
▁bidv	-5484
▁born	-5485
▁bout	-5486
▁btec	-5487
▁buff	-5488
▁buồi	-5489
▁bòng	-5490
▁café	-5491
▁call	-5492
▁cari	-5493
▁cell	-5494
▁choi	-5495
▁chui	-5496
▁chum	-5497
▁chàm	-5498
▁chày	-5499
▁chét	-5500
▁chòm	-5501
▁chôn	-5502
▁chảo	-5503
▁chấu	-5504
▁chịt	-5505
▁chổm	-5506
▁chột	-5507
▁chợt	-5508
▁club	-5509
▁coca	-5510
▁cuba	-5511
▁cành	-5512
▁depp	-5513
▁diều	-5514
▁diễu	-5515
▁dĩnh	-5516
▁dẳng	-5517
▁ever	-5518
▁fern	-5519
▁girl	-5520
▁giun	-5521
▁giùp	-5522
▁giầy	-5523
▁giựt	-5524
▁hero	-5525
▁high	-5526
▁hiro	-5527
▁hiên	-5528
▁hiềm	-5529
▁hiều	-5530
▁hong	-5531
▁hose	-5532
▁hugo	-5533
▁háng	-5534
▁hãnh	-5535
▁hạch	-5536
▁hừng	-5537
▁iowa	-5538
▁itel	-5539
▁jano	-5540
▁karl	-5541
▁khuê	-5542
▁king	-5543
▁kurt	-5544
▁liềm	-5545
▁load	-5546
▁lênh	-5547
▁lượm	-5548
▁lượn	-5549
▁marc	-5550
▁marx	-5551
▁mash	-5552
▁miss	-5553
▁miêu	-5554
▁miếc	-5555
▁miến	-5556
▁mood	-5557
▁moon	-5558
▁mrna	-5559
▁máng	-5560
▁môtô	-5561
▁mọng	-5562
▁name	-5563
▁nghé	-5564
▁ngùi	-5565
▁ngấp	-5566
▁ngậm	-5567
▁ngắc	-5568
▁ngụy	-5569
▁nham	-5570
▁nhuệ	-5571
▁nháp	-5572
▁nhạo	-5573
▁nhản	-5574
▁nhằn	-5575
▁nhẹn	-5576
▁nhọc	-5577
▁nhọn	-5578
▁nhốt	-5579
▁nhột	-5580
▁nova	-5581
▁novo	-5582
▁nách	-5583
▁nịch	-5584
▁nịnh	-5585
▁nứng	-5586
▁oled	-5587
▁olga	-5588
▁oppo	-5589
▁phàm	-5590
▁phảm	-5591
▁phồn	-5592
▁pink	-5593
▁puri	-5594
▁puth	-5595
▁qual	-5596
▁rong	-5597
▁ruby	-5598
▁sars	-5599
▁scan	-5600
▁shon	-5601
▁sien	-5602
▁soci	-5603
▁soái	-5604
▁sret	-5605
▁sùng	-5606
▁sướt	-5607
▁sảng	-5608
▁sủng	-5609
▁taro	-5610
▁thuở	-5611
▁thây	-5612
▁toát	-5613
▁toản	-5614
▁trán	-5615
▁trót	-5616
▁trôn	-5617
▁trẻo	-5618
▁trừu	-5619
▁tuất	-5620
▁tuốt	-5621
▁type	-5622
▁unis	-5623
▁uyển	-5624
▁vcci	-5625
▁vict	-5626
▁vinf	-5627
▁ving	-5628
▁virt	-5629
▁vitm	-5630
▁vnpt	-5631
▁volo	-5632
▁vsip	-5633
▁vằng	-5634
▁vụng	-5635
▁wash	-5636
▁year	-5637
▁yuij	-5638
▁điếc	-5639
▁đong	-5640
▁đênh	-5641
▁đổng	-5642
arldom	-5643
castle	-5644
chanov	-5645
ckpink	-5646
cktail	-5647
enfeld	-5648
enlong	-5649
estine	-5650
ghting	-5651
ground	-5652
ington	-5653
lawesi	-5654
loween	-5655
opyzen	-5656
phones	-5657
rtmund	-5658
senkun	-5659
tayama	-5660
watini	-5661
▁adani	-5662
▁alois	-5663
▁anand	-5664
▁annie	-5665
▁anton	-5666
▁artur	-5667
▁chanh	-5668
▁chuốc	-5669
▁chước	-5670
▁chượt	-5671
▁chằng	-5672
▁click	-5673
▁color	-5674
▁creta	-5675
▁djere	-5676
▁dượng	-5677
▁emily	-5678
▁erick	-5679
▁erika	-5680
▁exxon	-5681
▁feder	-5682
▁fedex	-5683
▁gióng	-5684
▁giông	-5685
▁giằng	-5686
▁haiti	-5687
▁hamas	-5688
▁hanks	-5689
▁huyệt	-5690
▁hường	-5691
▁intel	-5692
▁invit	-5693
▁italy	-5694
▁jeans	-5695
▁jones	-5696
▁joppa	-5697
▁jutta	-5698
▁kaity	-5699
▁karat	-5700
▁karen	-5701
▁kayak	-5702
▁khmer	-5703
▁khoay	-5704
▁laslo	-5705
▁later	-5706
▁lorna	-5707
▁loãng	-5708
▁lucky	-5709
▁manor	-5710
▁mauve	-5711
▁melía	-5712
▁milan	-5713
▁misso	-5714
▁mosel	-5715
▁mover	-5716
▁naatu	-5717
▁ngước	-5718
▁nhuần	-5719
▁nhích	-5720
▁osaka	-5721
▁phiến	-5722
▁phùng	-5723
▁phịch	-5724
▁prior	-5725
▁prote	-5726
▁putin	-5727
▁quáng	-5728
▁quýnh	-5729
▁redmi	-5730
▁rolls	-5731
▁royce	-5732
▁ryder	-5733
▁sanho	-5734
▁saudi	-5735
▁scots	-5736
▁sedan	-5737
▁share	-5738
▁shark	-5739
▁shinh	-5740
▁siêng	-5741
▁south	-5742
▁state	-5743
▁steve	-5744
▁talim	-5745
▁thiều	-5746
▁thoạt	-5747
▁thuột	-5748
▁thừng	-5749
▁thửng	-5750
▁trans	-5751
▁tróng	-5752
▁tuyền	-5753
▁tuếch	-5754
▁uzbek	-5755
▁venus	-5756
▁vieon	-5757
▁viếng	-5758
▁vnpay	-5759
▁woman	-5760
▁woowa	-5761
▁yadea	-5762
csovics	-5763
effield	-5764
ermodel	-5765
▁abrams	-5766
▁arnold	-5767
▁awards	-5768
▁barack	-5769
▁boeing	-5770
▁boxing	-5771
▁brunei	-5772
▁capone	-5773
▁chesol	-5774
▁chiang	-5775
▁collin	-5776
▁corona	-5777
▁costco	-5778
▁crispr	-5779
▁eiffel	-5780
▁ernaux	-5781
▁friday	-5782
▁galaxy	-5783
▁gautam	-5784
▁george	-5785
▁godman	-5786
▁hacker	-5787
▁hajime	-5788
▁harris	-5789
▁honors	-5790
▁khuynh	-5791
▁legacy	-5792
▁lizzie	-5793
▁lusail	-5794
▁maison	-5795
▁marton	-5796
▁mekong	-5797
▁michel	-5798
▁molcan	-5799
▁nghinh	-5800
▁nhuyễn	-5801
▁ohtani	-5802
▁oliver	-5803
▁oxford	-5804
▁palmer	-5805
▁pencil	-5806
▁queens	-5807
▁rapper	-5808
▁schulz	-5809
▁sentry	-5810
▁shohei	-5811
▁sinner	-5812
▁soviet	-5813
▁stream	-5814
▁suluku	-5815
▁suzuki	-5816
▁thomas	-5817
▁thptqg	-5818
▁vbbank	-5819
▁vienna	-5820
▁volksw	-5821
▁vpbank	-5822
▁wikipe	-5823
▁zucker	-5824
▁zverev	-5825
ciations	-5826
idenheim	-5827
▁abhigya	-5828
▁adblock	-5829
▁alvarez	-5830
▁armenia	-5831
▁bernard	-5832
▁boonson	-5833
▁boronia	-5834
▁capital	-5835
▁charles	-5836
▁concept	-5837
▁cruiser	-5838
▁earldom	-5839
▁english	-5840
▁enrique	-5841
▁faraday	-5842
▁fintech	-5843
▁fitness	-5844
▁formosa	-5845
▁gabriel	-5846
▁iceland	-5847
▁leerdam	-5848
▁lorenzo	-5849
▁magenta	-5850
▁marocco	-5851
▁melling	-5852
▁mindset	-5853
▁musetti	-5854
▁neilsen	-5855
▁ngannou	-5856
▁nostrad	-5857
▁parkrun	-5858
▁prender	-5859
▁puripol	-5860
▁rischko	-5861
▁santafe	-5862
▁shakira	-5863
▁srettha	-5864
▁uruguay	-5865
▁vaquita	-5866
▁vinasun	-5867
▁vovinam	-5868
▁walczak	-5869
▁boutique	-5870
▁brothers	-5871
▁cadillac	-5872
▁canaanor	-5873
▁casemiro	-5874
▁cocktail	-5875
▁delivery	-5876
▁dortmund	-5877
▁eswatini	-5878
▁fansipan	-5879
▁fighting	-5880
▁kienlong	-5881
▁kitayama	-5882
▁linkedin	-5883
▁moriyasu	-5884
▁national	-5885
▁paradise	-5886
▁priority	-5887
▁qualcomm	-5888
▁saraburi	-5889
▁sisenkun	-5890
▁statista	-5891
▁sulawesi	-5892
▁sunshine	-5893
▁thavisin	-5894
▁vingroup	-5895
▁vinpearl	-5896
▁viruccio	-5897
▁youtuber	-5898
▁zamburin	-5899
▁zelensky	-5900
▁alexander	-5901
▁applebank	-5902
▁blackpink	-5903
▁christian	-5904
▁fernandes	-5905
▁fucsovics	-5906
▁globaledu	-5907
▁halloween	-5908
▁khachanov	-5909
▁mashatile	-5910
▁newcastle	-5911
▁palestine	-5912
▁sheffield	-5913
▁spaylater	-5914
▁vinfuture	-5915
▁volodymyr	-5916
▁wikipedia	-5917
▁angelababy	-5918
▁benzopyzen	-5919
▁cellphones	-5920
▁exxonmobil	-5921
▁federation	-5922
▁heidenheim	-5923
▁langenfeld	-5924
▁protection	-5925
▁queensland	-5926
▁supermodel	-5927
▁uzbekistan	-5928
▁volkswagen	-5929
▁washington	-5930
▁zuckerberg	-5931
▁nostradamus	-5932
▁prendergast	-5933
▁associations	-5934
▁invitational	-5935
▁kienlongbank	-5936
bj	-5937
br	-5938
bà	-5939
cc	-5940
cp	-5941
cr	-5942
cs	-5943
cu	-5944
cơ	-5945
dw	-5946
dy	-5947
dz	-5948
dĩ	-5949
ej	-5950
fc	-5951
fu	-5952
gs	-5953
hu	-5954
if	-5955
ig	-5956
jk	-5957
jl	-5958
ku	-5959
lb	-5960
lh	-5961
ln	-5962
mr	-5963
ms	-5964
nk	-5965
nz	-5966
ob	-5967
pi	-5968
pv	-5969
qc	-5970
rk	-5971
rp	-5972
rr	-5973
sj	-5974
ua	-5975
ug	-5976
uv	-5977
vk	-5978
vy	-5979
wd	-5980
wo	-5981
ys	-5982
zo	-5983
zu	-5984
àm	-5985
èr	-5986
éb	-5987
êt	-5988
ìu	-5989
ín	-5990
óe	-5991
õm	-5992
đi	-5993
ĩu	-5994
ạu	-5995
ẹm	-5996
ỉu	-5997
ỗm	-5998
ụm	-5999
gd	-6000
xã	-6001
ứu	-6002
▁?	-6003
▁ù	-6004
▁ẩ	-6005
ach	-6006
ads	-6007
aky	-6008
aog	-6009
arm	-6010
ate	-6011
aui	-6012
aya	-6013
bie	-6014
cab	-6015
cap	-6016
cca	-6017
cip	-6018
cus	-6019
dex	-6020
ect	-6021
efa	-6022
ekr	-6023
ele	-6024
emy	-6025
ena	-6026
eos	-6027
epr	-6028
erg	-6029
erz	-6030
esh	-6031
evi	-6032
fan	-6033
gal	-6034
gap	-6035
gor	-6036
gre	-6037
hai	-6038
hir	-6039
hoo	-6040
hov	-6041
ich	-6042
ict	-6043
ien	-6044
iku	-6045
inp	-6046
ium	-6047
jik	-6048
jma	-6049
kav	-6050
kes	-6051
lix	-6052
llo	-6053
lva	-6054
lyu	-6055
mat	-6056
med	-6057
mun	-6058
nal	-6059
nej	-6060
ney	-6061
nge	-6062
nia	-6063
năm	-6064
och	-6065
oda	-6066
oji	-6067
oku	-6068
opa	-6069
ore	-6070
pef	-6071
pia	-6072
pid	-6073
pis	-6074
ple	-6075
pop	-6076
por	-6077
pos	-6078
pot	-6079
qué	-6080
raf	-6081
ran	-6082
raw	-6083
ray	-6084
ren	-6085
rew	-6086
riq	-6087
rof	-6088
rol	-6089
sbr	-6090
sgt	-6091
smo	-6092
sne	-6093
sta	-6094
tac	-6095
the	-6096
tie	-6097
tob	-6098
top	-6099
ame	-6100
cam	-6101
ecd	-6102
fin	-6103
hit	-6104
hôm	-6105
kak	-6106
min	-6107
oam	-6108
rin	-6109
seo	-6110
tos	-6111
tow	-6112
ual	-6113
udy	-6114
uli	-6115
utu	-6116
vas	-6117
vdi	-6118
ves	-6119
xie	-6120
ych	-6121
yng	-6122
zer	-6123
ươu	-6124
ướu	-6125
ưởi	-6126
ấng	-6127
ẩng	-6128
ửng	-6129
▁bt	-6130
▁bâ	-6131
▁bã	-6132
▁bô	-6133
▁bở	-6134
▁bợ	-6135
▁cb	-6136
▁ce	-6137
▁cm	-6138
▁ct	-6139
▁cy	-6140
▁cz	-6141
▁cò	-6142
▁dn	-6143
▁dè	-6144
▁dú	-6145
▁dẻ	-6146
▁dẽ	-6147
▁dố	-6148
▁eo	-6149
▁gb	-6150
▁ge	-6151
▁gk	-6152
▁gạ	-6153
▁hũ	-6154
▁hớ	-6155
▁hử	-6156
▁ip	-6157
▁ka	-6158
▁kr	-6159
▁ll	-6160
▁lù	-6161
▁lú	-6162
▁lề	-6163
▁lị	-6164
▁lố	-6165
▁lỳ	-6166
▁mb	-6167
▁mn	-6168
▁ms	-6169
▁mư	-6170
▁mỳ	-6171
▁nư	-6172
▁nẻ	-6173
▁nỉ	-6174
▁nờ	-6175
▁oa	-6176
▁or	-6177
▁ps	-6178
▁pô	-6179
▁rú	-6180
▁rạ	-6181
▁rỗ	-6182
▁sb	-6183
▁sả	-6184
▁sỉ	-6185
▁sỏ	-6186
▁sộ	-6187
▁sỡ	-6188
▁tb	-6189
▁tt	-6190
▁tẻ	-6191
▁tề	-6192
▁tể	-6193
▁tễ	-6194
▁tỳ	-6195
▁vò	-6196
▁vơ	-6197
▁vố	-6198
▁xp	-6199
app	-6200
bup	-6201
cov	-6202
ecc	-6203
eno	-6204
enq	-6205
gen	-6206
nom	-6207
sco	-6208
ten	-6209
▁ak	-6210
▁wa	-6211
▁xơ	-6212
▁xổ	-6213
▁xở	-6214
▁ya	-6215
▁yi	-6216
▁éo	-6217
▁òm	-6218
▁đò	-6219
▁đơ	-6220
▁ơm	-6221
▁ải	-6222
▁ản	-6223
▁ấu	-6224
▁ối	-6225
▁ổi	-6226
▁ứt	-6227
ablo	-6228
acex	-6229
adow	-6230
agas	-6231
ager	-6232
aids	-6233
akit	-6234
akpo	-6235
alem	-6236
ales	-6237
alis	-6238
alle	-6239
alon	-6240
ambo	-6241
ames	-6242
ande	-6243
ange	-6244
ania	-6245
anor	-6246
apas	-6247
ares	-6248
arev	-6249
arta	-6250
arth	-6251
artn	-6252
asem	-6253
asha	-6254
atch	-6255
awut	-6256
azil	-6257
bana	-6258
bara	-6259
bean	-6260
bile	-6261
budo	-6262
card	-6263
cert	-6264
chat	-6265
chev	-6266
ciel	-6267
city	-6268
ckin	-6269
coin	-6270
cote	-6271
cson	-6272
cula	-6273
cơva	-6274
doch	-6275
door	-6276
each	-6277
edar	-6278
edri	-6279
eira	-6280
elie	-6281
emen	-6282
enne	-6283
enso	-6284
enta	-6285
ente	-6286
eran	-6287
ercy	-6288
erik	-6289
esso	-6290
etre	-6291
evic	-6292
evin	-6293
ewey	-6294
flix	-6295
fyan	-6296
hart	-6297
hạnh	-6298
icil	-6299
ari	-6300
ark	-6301
arn	-6302
car	-6303
esa	-6304
gic	-6305
hic	-6306
ima	-6307
imb	-6308
iếc	-6309
nel	-6310
onz	-6311
ski	-6312
spi	-6313
sss	-6314
vet	-6315
vic	-6316
vis	-6317
▁eg	-6318
chit	-6319
edad	-6320
fica	-6321
icus	-6322
imal	-6323
iman	-6324
inay	-6325
ingo	-6326
isto	-6327
kler	-6328
kuna	-6329
kurs	-6330
lder	-6331
ller	-6332
llie	-6333
llit	-6334
lovk	-6335
lyde	-6336
mble	-6337
nada	-6338
nhóm	-6339
obel	-6340
omon	-6341
onev	-6342
onga	-6343
onio	-6344
onti	-6345
orda	-6346
orgh	-6347
orus	-6348
peed	-6349
pest	-6350
pphi	-6351
ptor	-6352
rick	-6353
riff	-6354
rift	-6355
rome	-6356
room	-6357
roud	-6358
ruff	-6359
seas	-6360
seph	-6361
smet	-6362
soma	-6363
ssía	-6364
stay	-6365
teau	-6366
tiup	-6367
tney	-6368
toin	-6369
tour	-6370
tter	-6371
ttie	-6372
tton	-6373
undi	-6374
usep	-6375
uyne	-6376
vich	-6377
well	-6378
wood	-6379
zakh	-6380
zard	-6381
zona	-6382
▁aag	-6383
▁act	-6384
▁ara	-6385
▁arr	-6386
▁asp	-6387
▁ast	-6388
▁bad	-6389
▁bae	-6390
▁bak	-6391
▁beo	-6392
▁bes	-6393
▁bis	-6394
▁bit	-6395
▁bon	-6396
▁bui	-6397
▁buk	-6398
▁bân	-6399
ika	-6400
itl	-6401
ned	-6402
neg	-6403
nep	-6404
ocs	-6405
oks	-6406
ori	-6407
orm	-6408
ory	-6409
rah	-6410
sti	-6411
tli	-6412
▁ek	-6413
▁il	-6414
▁wu	-6415
▁wy	-6416
▁ẹt	-6417
ding	-6418
ewis	-6419
habi	-6420
icic	-6421
king	-6422
leim	-6423
lian	-6424
liga	-6425
lock	-6426
mium	-6427
ndes	-6428
pare	-6429
quel	-6430
raha	-6431
seco	-6432
stea	-6433
stle	-6434
tach	-6435
tric	-6436
▁aon	-6437
▁bâu	-6438
▁bòn	-6439
▁búp	-6440
▁băm	-6441
▁bạt	-6442
▁bần	-6443
▁bẩy	-6444
▁bẹp	-6445
▁bịa	-6446
▁bịt	-6447
▁bịớ	-6448
▁bồn	-6449
▁bời	-6450
▁bủa	-6451
▁cec	-6452
▁chư	-6453
▁chẻ	-6454
▁chề	-6455
▁chễ	-6456
▁clo	-6457
▁cov	-6458
▁càn	-6459
▁cúi	-6460
▁cút	-6461
▁cơi	-6462
▁cưa	-6463
▁cạp	-6464
▁cẩu	-6465
▁cặc	-6466
▁cốp	-6467
▁củi	-6468
▁day	-6469
▁deb	-6470
▁def	-6471
▁dek	-6472
▁des	-6473
▁dic	-6474
▁dig	-6475
▁diu	-6476
▁dod	-6477
▁doo	-6478
▁dsm	-6479
▁dùi	-6480
▁dúi	-6481
▁dầm	-6482
▁dẫy	-6483
▁dật	-6484
▁dặc	-6485
▁dụi	-6486
▁dụm	-6487
▁dựt	-6488
▁eck	-6489
▁enz	-6490
▁fia	-6491
▁fil	-6492
▁fly	-6493
▁fus	-6494
▁ger	-6495
▁ghe	-6496
▁giơ	-6497
▁goo	-6498
▁gsm	-6499
ace	-6500
ata	-6501
cak	-6502
cco	-6503
edy	-6504
fia	-6505
hii	-6506
hio	-6507
lad	-6508
nad	-6509
rbo	-6510
sat	-6511
uss	-6512
vat	-6513
yli	-6514
alez	-6515
andm	-6516
cago	-6517
cmai	-6518
egal	-6519
enco	-6520
inaz	-6521
inco	-6522
load	-6523
rifa	-6524
roll	-6525
tajk	-6526
tlas	-6527
trad	-6528
unce	-6529
uson	-6530
uthi	-6531
▁bèn	-6532
▁dna	-6533
▁ebo	-6534
▁gùm	-6535
▁gấc	-6536
▁gấm	-6537
▁gầu	-6538
▁gẫy	-6539
▁gột	-6540
▁hac	-6541
▁hap	-6542
▁hen	-6543
▁hit	-6544
▁hua	-6545
▁hue	-6546
▁hye	-6547
▁hòm	-6548
▁hấu	-6549
▁hắc	-6550
▁hằn	-6551
▁hẻn	-6552
▁hịn	-6553
▁hớt	-6554
▁hởi	-6555
▁hợi	-6556
▁hực	-6557
▁idp	-6558
▁ins	-6559
▁ios	-6560
▁isi	-6561
▁ite	-6562
▁iwo	-6563
▁jak	-6564
▁jci	-6565
▁jen	-6566
▁job	-6567
▁kak	-6568
▁ker	-6569
▁khù	-6570
▁khế	-6571
▁khỉ	-6572
▁khở	-6573
▁kok	-6574
▁kom	-6575
▁kuo	-6576
▁kìm	-6577
▁kít	-6578
▁kịt	-6579
▁lac	-6580
▁les	-6581
▁liz	-6582
▁los	-6583
▁lux	-6584
▁làu	-6585
▁lác	-6586
▁lèo	-6587
▁lém	-6588
▁lén	-6589
▁lía	-6590
▁líu	-6591
▁lóa	-6592
▁lói	-6593
▁lạp	-6594
▁lầy	-6595
▁lắt	-6596
▁lết	-6597
▁lộp	-6598
▁lựu	-6599
dev	-6600
ffe	-6601
ghs	-6602
gui	-6603
ota	-6604
pto	-6605
rry	-6606
sil	-6607
ubi	-6608
umi	-6609
vre	-6610
yme	-6611
▁ói	-6612
arum	-6613
aude	-6614
bike	-6615
eber	-6616
epka	-6617
erbi	-6618
exus	-6619
ilet	-6620
ilia	-6621
iste	-6622
nard	-6623
pard	-6624
pent	-6625
uple	-6626
vent	-6627
very	-6628
zzeo	-6629
▁are	-6630
▁dĩa	-6631
▁dỡn	-6632
▁feg	-6633
▁fre	-6634
▁hùa	-6635
▁iea	-6636
▁jun	-6637
▁kry	-6638
▁kum	-6639
▁kén	-6640
▁mea	-6641
▁mhz	-6642
▁mix	-6643
▁moi	-6644
▁mui	-6645
▁mào	-6646
▁mâm	-6647
▁mém	-6648
▁mít	-6649
▁mói	-6650
▁môt	-6651
▁múi	-6652
▁mĩa	-6653
▁mận	-6654
▁mậu	-6655
▁mắm	-6656
▁mền	-6657
▁mớm	-6658
▁mủi	-6659
▁nar	-6660
▁nhú	-6661
▁nhể	-6662
▁nhố	-6663
▁nhừ	-6664
▁nhử	-6665
▁nim	-6666
▁nob	-6667
▁nsj	-6668
▁nua	-6669
▁nài	-6670
▁nùi	-6671
▁nải	-6672
▁nấc	-6673
▁nấp	-6674
▁nến	-6675
▁nện	-6676
▁nộm	-6677
▁ohm	-6678
▁oil	-6679
▁ote	-6680
▁oxy	-6681
▁oái	-6682
▁oăm	-6683
▁oải	-6684
▁pap	-6685
▁pbo	-6686
▁peb	-6687
▁pet	-6688
▁pew	-6689
▁phô	-6690
▁phả	-6691
▁phế	-6692
▁phỏ	-6693
▁phớ	-6694
▁phờ	-6695
▁pok	-6696
▁pol	-6697
▁qcg	-6698
▁quí	-6699
dec	-6700
dee	-6701
got	-6702
nik	-6703
ova	-6704
tji	-6705
uka	-6706
ège	-6707
anoi	-6708
anuk	-6709
asek	-6710
chol	-6711
dech	-6712
erse	-6713
ewol	-6714
indi	-6715
itik	-6716
lott	-6717
olen	-6718
rame	-6719
ryno	-6720
sche	-6721
thes	-6722
thic	-6723
ushu	-6724
▁all	-6725
▁bol	-6726
▁bẹo	-6727
▁dịa	-6728
▁eva	-6729
▁fol	-6730
▁isp	-6731
▁kyo	-6732
▁lằn	-6733
▁oti	-6734
▁pou	-6735
▁rai	-6736
▁ray	-6737
▁rea	-6738
▁reo	-6739
▁rep	-6740
▁rev	-6741
▁rew	-6742
▁ria	-6743
▁rio	-6744
▁riv	-6745
▁rua	-6746
▁râu	-6747
▁rèm	-6748
▁ròi	-6749
▁rót	-6750
▁rùa	-6751
▁rùm	-6752
▁rạo	-6753
▁rải	-6754
▁rảm	-6755
▁rầu	-6756
▁rằm	-6757
▁rền	-6758
▁rọi	-6759
▁rổn	-6760
▁rợn	-6761
▁rợp	-6762
▁rủa	-6763
▁sah	-6764
▁sci	-6765
▁sex	-6766
▁six	-6767
▁sla	-6768
▁spe	-6769
▁sud	-6770
▁suv	-6771
▁suê	-6772
▁swi	-6773
▁sàm	-6774
▁sào	-6775
▁sét	-6776
▁sêu	-6777
▁sùa	-6778
▁sùm	-6779
▁súp	-6780
▁sơi	-6781
▁sạp	-6782
▁sấm	-6783
▁sẩn	-6784
▁sắn	-6785
▁sẹo	-6786
▁sệt	-6787
▁sọc	-6788
▁sổm	-6789
▁sới	-6790
▁sờn	-6791
▁sứa	-6792
▁tci	-6793
▁tcp	-6794
▁tdp	-6795
▁tga	-6796
▁thè	-6797
▁tid	-6798
▁tna	-6799
lve	-6800
▁qđ	-6801
▁ỉa	-6802
ally	-6803
ecao	-6804
file	-6805
fune	-6806
idry	-6807
nect	-6808
occo	-6809
omei	-6810
post	-6811
send	-6812
tyei	-6813
ulin	-6814
ways	-6815
zant	-6816
▁abs	-6817
▁ads	-6818
▁búk	-6819
▁crv	-6820
▁gmo	-6821
▁hpg	-6822
▁hpx	-6823
▁ikk	-6824
▁mỏm	-6825
▁oba	-6826
▁obt	-6827
▁psg	-6828
▁pul	-6829
▁rìu	-6830
▁rỉa	-6831
▁toi	-6832
▁toạ	-6833
▁trệ	-6834
▁trứ	-6835
▁tàm	-6836
▁tày	-6837
▁tép	-6838
▁tía	-6839
▁tít	-6840
▁tót	-6841
▁túm	-6842
▁túp	-6843
▁tơi	-6844
▁tảo	-6845
▁tấc	-6846
▁tẩn	-6847
▁tẩu	-6848
▁tắp	-6849
▁tệp	-6850
▁tịt	-6851
▁tụm	-6852
▁uta	-6853
▁utd	-6854
▁var	-6855
▁vat	-6856
▁vba	-6857
▁vcb	-6858
▁vic	-6859
▁vla	-6860
▁vns	-6861
▁voy	-6862
▁vun	-6863
▁vva	-6864
▁vèo	-6865
▁véc	-6866
▁véo	-6867
▁vòi	-6868
▁vón	-6869
▁vót	-6870
▁vùi	-6871
▁vùn	-6872
▁vạt	-6873
▁vắn	-6874
▁vặc	-6875
▁vẹo	-6876
▁vệt	-6877
▁vốt	-6878
▁vụn	-6879
▁vựa	-6880
▁wan	-6881
▁war	-6882
▁wba	-6883
▁wbo	-6884
▁wed	-6885
▁wes	-6886
▁whi	-6887
▁wol	-6888
▁won	-6889
▁wuk	-6890
▁xuê	-6891
▁xèo	-6892
▁xùm	-6893
▁xạc	-6894
▁xảo	-6895
▁xẹp	-6896
▁xịp	-6897
▁xộn	-6898
▁xửa	-6899
awa	-6900
awei	-6901
ders	-6902
ethe	-6903
iths	-6904
ivka	-6905
lora	-6906
lory	-6907
ruck	-6908
runo	-6909
schị	-6910
smus	-6911
soft	-6912
udna	-6913
uniy	-6914
vels	-6915
wati	-6916
zhin	-6917
▁afc	-6918
▁byd	-6919
▁cọp	-6920
▁cợn	-6921
▁gợn	-6922
▁ibc	-6923
▁lóe	-6924
▁mbc	-6925
▁móp	-6926
▁ova	-6927
▁rbc	-6928
▁rờn	-6929
▁tkv	-6930
▁yao	-6931
▁yuk	-6932
▁yếm	-6933
▁zen	-6934
▁đun	-6935
▁đéc	-6936
▁đìm	-6937
▁đít	-6938
▁đùi	-6939
▁đẩn	-6940
▁đẫy	-6941
▁đẹo	-6942
▁địp	-6943
▁địu	-6944
▁đốm	-6945
▁đớm	-6946
▁đờn	-6947
▁đực	-6948
▁ắng	-6949
▁ếch	-6950
accao	-6951
adian	-6952
aksin	-6953
aling	-6954
aloes	-6955
aloni	-6956
amaha	-6957
andra	-6958
angar	-6959
angon	-6960
ankar	-6961
ankei	-6962
anley	-6963
antes	-6964
arids	-6965
ashio	-6966
bella	-6967
ccess	-6968
chard	-6969
chett	-6970
citer	-6971
ckham	-6972
ckpit	-6973
conom	-6974
donna	-6975
dorus	-6976
ecare	-6977
edham	-6978
edict	-6979
egame	-6980
eiros	-6981
elift	-6982
elles	-6983
elsen	-6984
elsey	-6985
endra	-6986
ening	-6987
ensek	-6988
ensen	-6989
enses	-6990
epard	-6991
erald	-6992
eresa	-6993
eslav	-6994
esley	-6995
found	-6996
geria	-6997
ghton	-6998
homes	-6999
clid	-7000
cond	-7001
eloz	-7002
etoo	-7003
firm	-7004
four	-7005
logy	-7006
pret	-7007
rmôn	-7008
sora	-7009
▁bgi	-7010
▁bặm	-7011
▁dặm	-7012
▁eta	-7013
▁gặm	-7014
▁gờm	-7015
▁hcm	-7016
▁hvn	-7017
▁mey	-7018
▁pnc	-7019
▁ôtô	-7020
ashin	-7021
athan	-7022
elsea	-7023
erial	-7024
esire	-7025
hovka	-7026
idero	-7027
ikawa	-7028
ikhan	-7029
imbun	-7030
inawa	-7031
inity	-7032
itzer	-7033
jamin	-7034
keshi	-7035
latko	-7036
lherz	-7037
licon	-7038
ligam	-7039
light	-7040
lượng	-7041
markt	-7042
nadiy	-7043
nalin	-7044
nburi	-7045
ndham	-7046
negie	-7047
người	-7048
nolog	-7049
ochai	-7050
olten	-7051
ombia	-7052
orent	-7053
oster	-7054
ovych	-7055
owski	-7056
photo	-7057
point	-7058
ports	-7059
pture	-7060
rabat	-7061
raith	-7062
ridge	-7063
rieri	-7064
risma	-7065
rison	-7066
rizon	-7067
rofen	-7068
rolla	-7069
roshi	-7070
senal	-7071
shino	-7072
sport	-7073
ssaka	-7074
stani	-7075
stric	-7076
tdong	-7077
telle	-7078
uchin	-7079
utine	-7080
vanis	-7081
vills	-7082
visor	-7083
watch	-7084
watra	-7085
witch	-7086
xcơva	-7087
ylist	-7088
ytech	-7089
▁acad	-7090
▁aeon	-7091
▁alta	-7092
▁anio	-7093
▁anna	-7094
▁appr	-7095
▁aqua	-7096
▁asem	-7097
▁asmr	-7098
▁asus	-7099
eju	-7100
addy	-7101
anug	-7102
enig	-7103
ifor	-7104
lbao	-7105
pipe	-7106
rrus	-7107
unix	-7108
yuan	-7109
ères	-7110
ébut	-7111
▁apg	-7112
▁awd	-7113
▁ccs	-7114
▁hqc	-7115
▁ivy	-7116
▁mpv	-7117
▁nín	-7118
▁nệm	-7119
▁pdf	-7120
▁pdr	-7121
▁ufc	-7122
assic	-7123
chuan	-7124
dwana	-7125
jlund	-7126
orrow	-7127
riott	-7128
shiro	-7129
taide	-7130
uache	-7131
unior	-7132
▁atac	-7133
▁auto	-7134
▁auvi	-7135
▁aviv	-7136
▁back	-7137
▁bapt	-7138
▁beem	-7139
▁bkav	-7140
▁boys	-7141
▁bram	-7142
▁buck	-7143
▁buda	-7144
▁bưng	-7145
▁bướu	-7146
▁bẫng	-7147
▁bịch	-7148
▁bộng	-7149
▁cafe	-7150
▁carl	-7151
▁case	-7152
▁cash	-7153
▁chao	-7154
▁chol	-7155
▁chát	-7156
▁chãi	-7157
▁chíp	-7158
▁chóe	-7159
▁chôm	-7160
▁chầu	-7161
▁chậu	-7162
▁chắp	-7163
▁chằn	-7164
▁chỉn	-7165
▁chỏa	-7166
▁chồi	-7167
▁chồn	-7168
▁chới	-7169
▁chớm	-7170
▁chứt	-7171
▁chừa	-7172
▁code	-7173
▁coop	-7174
▁core	-7175
▁corp	-7176
▁crôm	-7177
▁cuội	-7178
▁còng	-7179
▁cõng	-7180
▁cướn	-7181
▁cưỡi	-7182
▁cược	-7183
▁cụng	-7184
▁dead	-7185
▁deli	-7186
▁deon	-7187
▁digi	-7188
▁diha	-7189
▁diết	-7190
▁dove	-7191
▁duẫn	-7192
▁dằng	-7193
▁eden	-7194
▁educ	-7195
▁esop	-7196
▁espo	-7197
▁evan	-7198
▁fabi	-7199
▁ẹm	-7200
▁ứu	-7201
evik	-7202
gate	-7203
hito	-7204
kaku	-7205
llot	-7206
muna	-7207
smos	-7208
▁tóe	-7209
akyan	-7210
amboo	-7211
apple	-7212
bspot	-7213
cipio	-7214
gazer	-7215
inpas	-7216
ranus	-7217
rinda	-7218
sneft	-7219
tobac	-7220
zuiku	-7221
▁avdi	-7222
▁axie	-7223
▁bigd	-7224
▁bưởi	-7225
▁chụm	-7226
▁csgt	-7227
▁cuỗm	-7228
▁fair	-7229
▁ferg	-7230
▁flam	-7231
▁fort	-7232
▁four	-7233
▁fred	-7234
▁gaal	-7235
▁gage	-7236
▁gang	-7237
▁gara	-7238
▁gate	-7239
▁genz	-7240
▁ghim	-7241
▁ghém	-7242
▁giãy	-7243
▁giòi	-7244
▁giũa	-7245
▁giập	-7246
▁giằn	-7247
▁giức	-7248
▁goku	-7249
▁graf	-7250
▁grow	-7251
▁gông	-7252
▁găng	-7253
▁gươm	-7254
▁gọng	-7255
▁gủng	-7256
▁hack	-7257
▁hanh	-7258
▁heat	-7259
▁hiếp	-7260
▁hoen	-7261
▁home	-7262
▁hooc	-7263
▁hood	-7264
▁hook	-7265
▁hoop	-7266
▁hosp	-7267
▁hozo	-7268
▁hoán	-7269
▁hách	-7270
▁hích	-7271
▁hòng	-7272
▁hóng	-7273
▁hăng	-7274
▁hĩnh	-7275
▁hươu	-7276
▁họng	-7277
▁ibup	-7278
▁inuy	-7279
▁ipad	-7280
▁ipay	-7281
▁ipef	-7282
▁java	-7283
▁jens	-7284
▁jima	-7285
▁joan	-7286
▁jobs	-7287
▁jong	-7288
▁joon	-7289
▁jump	-7290
▁kaog	-7291
▁keli	-7292
▁keno	-7293
▁kheo	-7294
▁kháu	-7295
▁khâm	-7296
▁khạo	-7297
▁khấm	-7298
▁kidz	-7299
bbean	-7300
borgh	-7301
hicle	-7302
ovich	-7303
shima	-7304
tlife	-7305
veira	-7306
victa	-7307
▁ekip	-7308
▁gonz	-7309
▁kirk	-7310
▁kiti	-7311
▁kiwa	-7312
▁kiêm	-7313
▁kiền	-7314
▁kobi	-7315
▁kong	-7316
▁kopa	-7317
▁kpis	-7318
▁kyiv	-7319
▁kình	-7320
▁kĩnh	-7321
▁kếch	-7322
▁lara	-7323
▁lien	-7324
▁list	-7325
▁loch	-7326
▁luth	-7327
▁luẩn	-7328
▁luồn	-7329
▁lynk	-7330
▁lyon	-7331
▁lình	-7332
▁lươn	-7333
▁lỉnh	-7334
▁lừng	-7335
▁lửng	-7336
▁mabu	-7337
▁made	-7338
▁make	-7339
▁mall	-7340
▁maps	-7341
▁mart	-7342
▁mary	-7343
▁mega	-7344
▁merc	-7345
▁misa	-7346
▁miếu	-7347
▁modi	-7348
▁muôi	-7349
▁muỗi	-7350
▁muội	-7351
▁mytv	-7352
▁màđi	-7353
▁mích	-7354
▁mônp	-7355
▁mồng	-7356
▁nami	-7357
▁nato	-7358
▁naui	-7359
▁navy	-7360
▁ness	-7361
▁ngai	-7362
▁ngao	-7363
▁ngoa	-7364
▁ngái	-7365
▁ngán	-7366
▁ngáy	-7367
▁ngây	-7368
▁ngòm	-7369
▁ngút	-7370
▁ngấy	-7371
▁ngầu	-7372
▁ngớt	-7373
▁ngợp	-7374
▁ngứa	-7375
▁nhao	-7376
▁nhoi	-7377
▁nhán	-7378
▁nhèo	-7379
▁nhóc	-7380
▁nhót	-7381
▁nhõm	-7382
▁nhũn	-7383
▁nhại	-7384
▁nhậm	-7385
▁nhặn	-7386
▁nhẻo	-7387
▁nhẽo	-7388
▁nhốc	-7389
▁ning	-7390
▁nint	-7391
▁niết	-7392
▁niệu	-7393
▁nouv	-7394
▁nuna	-7395
▁nuri	-7396
▁nùng	-7397
▁nấng	-7398
▁oecd	-7399
aydee	-7400
guire	-7401
vatan	-7402
▁ohio	-7403
▁olly	-7404
▁omen	-7405
▁over	-7406
▁patt	-7407
▁pele	-7408
▁penh	-7409
▁phiu	-7410
▁phét	-7411
▁phệt	-7412
▁phốt	-7413
▁phới	-7414
▁phủi	-7415
▁pine	-7416
▁plan	-7417
▁priy	-7418
▁puli	-7419
▁qcvn	-7420
▁quao	-7421
▁quãi	-7422
▁quăn	-7423
▁quạu	-7424
▁quấn	-7425
▁quẫn	-7426
▁quập	-7427
▁quậy	-7428
▁quắp	-7429
▁quệt	-7430
▁quới	-7431
▁rahm	-7432
▁reed	-7433
▁rica	-7434
▁rice	-7435
▁ring	-7436
▁risk	-7437
▁rock	-7438
▁rohn	-7439
▁roma	-7440
▁rosa	-7441
▁rose	-7442
▁ruồi	-7443
▁rãng	-7444
▁rông	-7445
▁rùng	-7446
▁rươi	-7447
▁rượt	-7448
▁sags	-7449
▁sapa	-7450
▁sark	-7451
▁save	-7452
▁secc	-7453
▁shan	-7454
▁shaw	-7455
▁size	-7456
▁solo	-7457
▁soán	-7458
▁soạt	-7459
▁ssss	-7460
▁subj	-7461
▁suýt	-7462
▁sway	-7463
▁syng	-7464
▁sính	-7465
▁sưởi	-7466
▁tank	-7467
▁thào	-7468
▁thím	-7469
▁thòi	-7470
▁thằn	-7471
▁thỉu	-7472
▁thốt	-7473
▁thổn	-7474
▁tony	-7475
▁toto	-7476
▁toái	-7477
▁trét	-7478
▁trêu	-7479
▁trìm	-7480
▁tròi	-7481
▁tròm	-7482
▁trĩa	-7483
▁trĩu	-7484
▁trầu	-7485
▁trển	-7486
▁trọc	-7487
▁trừa	-7488
▁tsuk	-7489
▁tuýt	-7490
▁tâng	-7491
▁uefa	-7492
▁unep	-7493
▁vali	-7494
▁vanh	-7495
▁vepr	-7496
▁vert	-7497
▁vest	-7498
▁viêt	-7499
▁viển	-7500
▁vlog	-7501
▁voọc	-7502
▁vpim	-7503
▁vuốt	-7504
▁váng	-7505
▁vánh	-7506
▁vênh	-7507
▁vừng	-7508
▁wenq	-7509
▁west	-7510
▁with	-7511
▁xiêu	-7512
▁xuẩn	-7513
▁yale	-7514
▁yarm	-7515
▁yola	-7516
▁yutu	-7517
▁zane	-7518
▁zhen	-7519
▁zika	-7520
▁điếu	-7521
▁điềm	-7522
▁điệm	-7523
▁đoái	-7524
▁đuốt	-7525
▁đùng	-7526
acomin	-7527
adshow	-7528
ainaly	-7529
andala	-7530
andray	-7531
angelo	-7532
antino	-7533
caprio	-7534
cliffe	-7535
credit	-7536
ecture	-7537
edrich	-7538
effler	-7539
eksang	-7540
ersbio	-7541
esales	-7542
etooth	-7543
grande	-7544
gregor	-7545
grethe	-7546
iensis	-7547
illaci	-7548
incoln	-7549
itless	-7550
ladesh	-7551
llivan	-7552
lovkin	-7553
manned	-7554
minica	-7555
nesota	-7556
odachi	-7557
olenko	-7558
ometre	-7559
onghen	-7560
pentus	-7561
phouse	-7562
pphire	-7563
pretty	-7564
rahics	-7565
rawara	-7566
runsuk	-7567
satada	-7568
shchev	-7569
siness	-7570
sology	-7571
spisil	-7572
terium	-7573
usalem	-7574
useppe	-7575
utions	-7576
vantam	-7577
verter	-7578
vethir	-7579
▁akari	-7580
▁alpha	-7581
▁altis	-7582
▁apcca	-7583
▁arena	-7584
▁ariya	-7585
▁astro	-7586
▁avika	-7587
▁aviva	-7588
▁beach	-7589
▁belie	-7590
▁besra	-7591
▁bioam	-7592
▁bitis	-7593
▁black	-7594
▁blair	-7595
▁blend	-7596
▁bolsh	-7597
▁bosch	-7598
▁brand	-7599
▁jeju	-7600
▁brown	-7601
▁bruno	-7602
▁canon	-7603
▁canxi	-7604
▁carat	-7605
▁carlo	-7606
▁caron	-7607
▁cedar	-7608
▁china	-7609
▁chiểu	-7610
▁choắt	-7611
▁chuối	-7612
▁chuồn	-7613
▁chưng	-7614
▁chạnh	-7615
▁chếch	-7616
▁chỏng	-7617
▁cocon	-7618
▁colle	-7619
▁colos	-7620
▁conor	-7621
▁coric	-7622
▁costa	-7623
▁cover	-7624
▁cross	-7625
▁cruze	-7626
▁cuống	-7627
▁czech	-7628
▁daler	-7629
▁dalic	-7630
▁darby	-7631
▁daria	-7632
▁debut	-7633
▁denso	-7634
▁derby	-7635
▁derek	-7636
▁dewey	-7637
▁dhabi	-7638
▁disco	-7639
▁dolat	-7640
▁donga	-7641
▁doppe	-7642
▁dream	-7643
▁drift	-7644
▁début	-7645
▁earth	-7646
▁ebank	-7647
▁ebola	-7648
▁emoji	-7649
▁enron	-7650
▁event	-7651
▁fabio	-7652
▁fiato	-7653
▁fiber	-7654
▁filip	-7655
▁finau	-7656
▁flick	-7657
▁flora	-7658
▁flyer	-7659
▁frame	-7660
▁frank	-7661
▁funix	-7662
▁gakpo	-7663
▁gavin	-7664
▁gemek	-7665
▁gemin	-7666
▁geong	-7667
▁gesso	-7668
▁ghiền	-7669
▁gianh	-7670
▁glory	-7671
▁goran	-7672
▁griff	-7673
▁guồng	-7674
▁gượng	-7675
▁handm	-7676
▁hanoi	-7677
▁hansi	-7678
▁hemin	-7679
▁hiive	-7680
▁himal	-7681
▁holly	-7682
▁house	-7683
▁huyck	-7684
▁huyên	-7685
▁hydra	-7686
▁hyori	-7687
▁hécta	-7688
▁ineos	-7689
▁iseas	-7690
▁ishii	-7691
▁jacob	-7692
▁james	-7693
▁jendo	-7694
▁jenny	-7695
▁karik	-7696
▁kbank	-7697
▁kevin	-7698
▁khiêu	-7699
▁khiềm	-7700
▁khoét	-7701
▁khỉnh	-7702
▁kiêng	-7703
▁klyde	-7704
▁korda	-7705
▁krông	-7706
▁laver	-7707
▁leber	-7708
▁leste	-7709
▁lewis	-7710
▁lexus	-7711
▁lidar	-7712
▁light	-7713
▁lipid	-7714
▁liêng	-7715
▁liểng	-7716
▁lliệu	-7717
▁loanh	-7718
▁lotte	-7719
▁louis	-7720
▁loáng	-7721
▁loằng	-7722
▁luber	-7723
▁lubin	-7724
▁luong	-7725
▁luyên	-7726
▁luông	-7727
▁lyriq	-7728
▁lênic	-7729
▁mafia	-7730
▁magic	-7731
▁mainz	-7732
▁marge	-7733
▁maria	-7734
▁marie	-7735
▁mavis	-7736
▁mckin	-7737
▁mctom	-7738
▁meaza	-7739
▁metoo	-7740
▁miami	-7741
▁modem	-7742
▁monte	-7743
▁moocs	-7744
▁moore	-7745
▁mương	-7746
▁nalis	-7747
▁napas	-7748
▁nejma	-7749
▁nelly	-7750
▁nghịt	-7751
▁ngoạc	-7752
▁ngoạm	-7753
▁ngoặc	-7754
▁nguôi	-7755
▁ngáng	-7756
▁ngóng	-7757
▁ngẩng	-7758
▁nhiếp	-7759
▁nhuẩn	-7760
▁nhăng	-7761
▁nilon	-7762
▁nixon	-7763
▁nuông	-7764
▁nướng	-7765
▁obata	-7766
▁opera	-7767
▁order	-7768
▁oscar	-7769
▁ounce	-7770
▁pablo	-7771
▁panor	-7772
▁partn	-7773
▁patty	-7774
▁peace	-7775
▁peppa	-7776
▁percy	-7777
▁phang	-7778
▁phiệt	-7779
▁phnom	-7780
▁phình	-7781
▁phích	-7782
▁piano	-7783
▁pique	-7784
▁piqué	-7785
▁plant	-7786
▁poker	-7787
▁praha	-7788
▁prime	-7789
▁qasem	-7790
▁quyển	-7791
▁quăng	-7792
▁radar	-7793
▁reels	-7794
▁regal	-7795
▁reich	-7796
▁ricco	-7797
▁robba	-7798
▁roman	-7799
▁roney	-7800
▁rosie	-7801
▁royal	-7802
▁rubio	-7803
▁sagan	-7804
▁salon	-7805
▁seoul	-7806
▁sewol	-7807
▁sharp	-7808
▁shina	-7809
▁silat	-7810
▁silva	-7811
▁simon	-7812
▁singh	-7813
▁smear	-7814
▁sochi	-7815
▁solve	-7816
▁sorry	-7817
▁speed	-7818
▁sport	-7819
▁stent	-7820
▁stone	-7821
▁storm	-7822
▁study	-7823
▁style	-7824
▁sushi	-7825
▁suwon	-7826
▁swift	-7827
▁taino	-7828
▁tajik	-7829
▁tamin	-7830
▁tapia	-7831
▁tarot	-7832
▁terat	-7833
▁thình	-7834
▁timor	-7835
▁toanh	-7836
▁todex	-7837
▁tonic	-7838
▁touch	-7839
▁trade	-7840
▁truss	-7841
▁trust	-7842
▁trạch	-7843
▁trảng	-7844
▁trỏng	-7845
▁turbo	-7846
▁tuông	-7847
▁tưỡng	-7848
▁under	-7849
▁usami	-7850
▁vario	-7851
▁vasek	-7852
▁veloz	-7853
▁viach	-7854
▁vinai	-7855
▁vinid	-7856
▁vksnd	-7857
▁vnnic	-7858
▁watch	-7859
▁water	-7860
▁xiềng	-7861
▁xiểng	-7862
▁xuyết	-7863
▁yahoo	-7864
▁yanuk	-7865
▁yemen	-7866
▁zeekr	-7867
▁zepto	-7868
▁zerbi	-7869
▁đicam	-7870
▁đoòng	-7871
agasaki	-7872
allenge	-7873
angaroo	-7874
anugarn	-7875
aziland	-7876
cholson	-7877
decilas	-7878
dochine	-7879
echviet	-7880
erative	-7881
esterol	-7882
ference	-7883
festyle	-7884
fintech	-7885
fourtow	-7886
icillin	-7887
ifornia	-7888
itality	-7889
leimani	-7890
necting	-7891
oneveld	-7892
queline	-7893
rolimex	-7894
rosimex	-7895
smetics	-7896
sterdam	-7897
tradict	-7898
tricare	-7899
tyeight	-7900
vention	-7901
wonders	-7902
zantine	-7903
zhinjam	-7904
▁actiup	-7905
▁aerial	-7906
▁andrew	-7907
▁angola	-7908
▁antoin	-7909
▁arabia	-7910
▁arapay	-7911
▁archit	-7912
▁arrest	-7913
▁atacms	-7914
▁ataide	-7915
▁balado	-7916
▁bamboo	-7917
▁bayern	-7918
▁bergen	-7919
▁bilbao	-7920
▁billie	-7921
▁bridge	-7922
▁brooks	-7923
▁bruyne	-7924
▁buffet	-7925
▁bumble	-7926
▁bundes	-7927
▁button	-7928
▁campos	-7929
▁canelo	-7930
▁canvas	-7931
▁carens	-7932
▁caribe	-7933
▁carina	-7934
▁castel	-7935
▁chichi	-7936
▁chotji	-7937
▁chrome	-7938
▁chưởng	-7939
▁cienco	-7940
▁cirrus	-7941
▁claude	-7942
▁cosmos	-7943
▁couple	-7944
▁credit	-7945
▁cybert	-7946
▁dapper	-7947
▁dekker	-7948
▁desire	-7949
▁diablo	-7950
▁dooley	-7951
▁doudna	-7952
▁dragon	-7953
▁draper	-7954
▁ducote	-7955
▁econom	-7956
▁edward	-7957
▁egroup	-7958
▁eilish	-7959
▁enzyme	-7960
▁erling	-7961
▁euclid	-7962
▁europa	-7963
▁filter	-7964
▁follow	-7965
▁forest	-7966
▁format	-7967
▁foster	-7968
▁freund	-7969
▁fronti	-7970
▁fuente	-7971
▁fusion	-7972
▁gerard	-7973
▁gianni	-7974
▁gillot	-7975
▁giroud	-7976
▁giương	-7977
▁gothic	-7978
▁guidry	-7979
▁gullit	-7980
▁habana	-7981
▁hallyu	-7982
▁harcus	-7983
▁hazard	-7984
▁heiman	-7985
▁hocmai	-7986
▁homedy	-7987
▁hormôn	-7988
▁houthi	-7989
▁howard	-7990
▁huawei	-7991
▁hunmed	-7992
▁hybrid	-7993
▁ikkoku	-7994
▁imitik	-7995
▁ivanis	-7996
▁jannik	-7997
▁jayson	-7998
▁jernej	-7999
▁johnny	-8000
▁joseph	-8001
▁julian	-8002
▁junior	-8003
▁kamala	-8004
▁kazakh	-8005
▁kerman	-8006
▁khssía	-8007
▁koenig	-8008
▁koepka	-8009
▁krysie	-8010
▁kumite	-8011
▁kuonio	-8012
▁kyushu	-8013
▁latinh	-8014
▁latvia	-8015
▁laughs	-8016
▁layter	-8017
▁louise	-8018
▁louvre	-8019
▁lukaku	-8020
▁lumina	-8021
▁maciel	-8022
▁maliki	-8023
▁manuka	-8024
▁marcel	-8025
▁margot	-8026
▁mellon	-8027
▁mifune	-8028
▁miller	-8029
▁mitoma	-8030
▁mobile	-8031
▁morgan	-8032
▁movers	-8033
▁mozzeo	-8034
▁mswati	-8035
▁nature	-8036
▁netnam	-8037
▁newsom	-8038
▁nghênh	-8039
▁ngoạch	-8040
▁ngoằng	-8041
▁nhưiếc	-8042
▁nicole	-8043
▁nimitz	-8044
▁nissan	-8045
▁norman	-8046
▁parker	-8047
▁pastel	-8048
▁paulus	-8049
▁pebble	-8050
▁pencak	-8051
▁phryno	-8052
▁plinaz	-8053
▁porter	-8054
▁poster	-8055
▁powles	-8056
▁prisma	-8057
▁raptor	-8058
▁rasmus	-8059
▁ratajk	-8060
▁reaper	-8061
▁report	-8062
▁reward	-8063
▁robbie	-8064
▁robert	-8065
▁robson	-8066
▁rogers	-8067
▁ryomei	-8068
▁sabudo	-8069
▁saigon	-8070
▁sandra	-8071
▁sankei	-8072
▁schett	-8073
▁search	-8074
▁seltos	-8075
▁senses	-8076
▁shadow	-8077
▁shiper	-8078
▁shonen	-8079
▁simple	-8080
▁slavia	-8081
▁soares	-8082
▁social	-8083
▁sofyan	-8084
▁spacex	-8085
▁spears	-8086
▁spring	-8087
▁steffi	-8088
▁stoker	-8089
▁struff	-8090
▁sukuna	-8091
▁sunset	-8092
▁switch	-8093
▁talent	-8094
▁tanaka	-8095
▁tarifa	-8096
▁taseco	-8097
▁tastea	-8098
▁thiêng	-8099
▁toilet	-8100
▁topdev	-8101
▁travel	-8102
▁tripad	-8103
▁truman	-8104
▁tuchel	-8105
▁tucson	-8106
▁uncond	-8107
▁unisex	-8108
▁unlock	-8109
▁uranus	-8110
▁varane	-8111
▁victus	-8112
▁viking	-8113
▁violin	-8114
▁virtus	-8115
▁vlasta	-8116
▁vtvcab	-8117
▁warren	-8118
▁wilder	-8119
▁wolves	-8120
▁wraith	-8121
▁wukong	-8122
▁yamaha	-8123
▁yangon	-8124
▁yashio	-8125
▁yochai	-8126
▁yuijij	-8127
▁yukina	-8128
▁zlatko	-8129
areverse	-8130
borghini	-8131
checking	-8132
cribeano	-8133
fermarkt	-8134
gondwana	-8135
nologies	-8136
orentina	-8137
osterone	-8138
postbank	-8139
stricker	-8140
tdongsan	-8141
terpoint	-8142
ytechnic	-8143
▁academy	-8144
▁airways	-8145
▁alopare	-8146
▁amaccao	-8147
▁amrabat	-8148
▁anfield	-8149
▁angeles	-8150
▁anhobel	-8151
▁antifan	-8152
▁antonio	-8153
▁arizona	-8154
▁arsenal	-8155
▁bakuman	-8156
▁barbara	-8157
▁beckham	-8158
▁benfica	-8159
▁benkler	-8160
▁beruniy	-8161
▁bissaka	-8162
▁bitcoin	-8163
▁bokator	-8164
▁booking	-8165
▁britney	-8166
▁bungary	-8167
▁cadmium	-8168
▁calisto	-8169
▁cannada	-8170
▁capture	-8171
▁cecilia	-8172
▁channel	-8173
▁chateau	-8174
▁chelsea	-8175
▁chelsey	-8176
▁chicago	-8177
▁chisora	-8178
▁cicicic	-8179
▁classic	-8180
▁clothes	-8181
▁cockpit	-8182
▁colenia	-8183
▁collins	-8184
▁collège	-8185
▁concert	-8186
▁confirm	-8187
▁content	-8188
▁corolla	-8189
▁deontay	-8190
▁digital	-8191
▁dodgers	-8192
▁dracula	-8193
▁eckhart	-8194
▁ecocity	-8195
▁edition	-8196
▁eduardo	-8197
▁emerald	-8198
▁esports	-8199
▁evening	-8200
▁everton	-8201
▁exciter	-8202
▁finance	-8203
▁friends	-8204
▁gouache	-8205
▁haaland	-8206
▁hactech	-8207
▁healing	-8208
▁hiroshi	-8209
▁hojlund	-8210
▁horizon	-8211
▁hoshino	-8212
▁hubspot	-8213
▁hungary	-8214
▁incipio	-8215
▁insulin	-8216
▁invicta	-8217
▁jackson	-8218
▁jakarta	-8219
▁kaogong	-8220
▁keliang	-8221
▁kommuna	-8222
▁konkurs	-8223
▁legends	-8224
▁lennard	-8225
▁leopard	-8226
▁limited	-8227
▁lincoln	-8228
▁luxstay	-8229
▁lămngày	-8230
▁madness	-8231
▁madonna	-8232
▁maguire	-8233
▁malindi	-8234
▁mandala	-8235
▁marvels	-8236
▁mercure	-8237
▁miligam	-8238
▁milimet	-8239
▁mirinda	-8240
▁mizuiku	-8241
▁mnuchin	-8242
▁moonbin	-8243
▁morocco	-8244
▁needham	-8245
▁netflix	-8246
▁nielsen	-8247
▁nigeria	-8248
▁nobland	-8249
▁novosti	-8250
▁okinawa	-8251
▁palette	-8252
▁patrick	-8253
▁phantom	-8254
▁phạmova	-8255
▁pierson	-8256
▁porsche	-8257
▁presley	-8258
▁profile	-8259
▁pulisic	-8260
▁reikhan	-8261
▁richard	-8262
▁riveter	-8263
▁rosneft	-8264
▁routine	-8265
▁santino	-8266
▁sarabia	-8267
▁savills	-8268
▁scaloni	-8269
▁schools	-8270
▁science	-8271
▁scottie	-8272
▁selecao	-8273
▁senegal	-8274
▁sharing	-8275
▁shepard	-8276
▁shimbun	-8277
▁shinhan	-8278
▁sichuan	-8279
▁silicon	-8280
▁solange	-8281
▁solomon	-8282
▁stanley	-8283
▁stolten	-8284
▁stylist	-8285
▁success	-8286
▁takeshi	-8287
▁tavatan	-8288
▁temasek	-8289
▁thaksin	-8290
▁theresa	-8291
▁thinpas	-8292
▁thuring	-8293
▁topping	-8294
▁toshiro	-8295
▁trailer	-8296
▁trotter	-8297
▁tsukumi	-8298
▁vatican	-8299
▁vehicle	-8300
▁victory	-8301
▁vietgap	-8302
▁virtual	-8303
▁voyager	-8304
▁wedding	-8305
▁wenqing	-8306
▁whistle	-8307
▁worawut	-8308
▁wyndham	-8309
▁zenbook	-8310
ainalysis	-8311
andrayaan	-8312
foundland	-8313
itionally	-8314
▁aquarids	-8315
▁avdiivka	-8316
▁bacillus	-8317
▁baeksang	-8318
▁baptiste	-8319
▁benedict	-8320
▁benjamin	-8321
▁bigdaddy	-8322
▁bluecare	-8323
▁brighton	-8324
▁budapest	-8325
▁business	-8326
▁canadian	-8327
▁carnegie	-8328
▁carrieri	-8329
▁cashwell	-8330
▁chonburi	-8331
▁collagen	-8332
▁colombia	-8333
▁colorado	-8334
▁countach	-8335
▁danielle	-8336
▁deadline	-8337
▁defender	-8338
▁dicaprio	-8339
▁digibank	-8340
▁dominica	-8341
▁download	-8342
▁ebanking	-8343
▁erickson	-8344
▁europipe	-8345
▁fabienne	-8346
▁facelift	-8347
▁fegidero	-8348
▁ferguson	-8349
▁fivethir	-8350
▁flamingo	-8351
▁foodtour	-8352
▁frederik	-8353
▁gatchett	-8354
▁geminids	-8355
▁gennadiy	-8356
▁giamorin	-8357
▁giuseppe	-8358
▁golovkin	-8359
▁gonzalez	-8360
▁handmade	-8361
▁himalaya	-8362
▁hirohito	-8363
▁hirunsuk	-8364
▁holdings	-8365
▁homegame	-8366
▁infinity	-8367
▁inuyasha	-8368
▁inverter	-8369
▁isabella	-8370
▁jendoubi	-8371
▁jonathan	-8372
▁kakhovka	-8373
▁kamensek	-8374
▁kangaroo	-8375
▁kidzania	-8376
▁kitidech	-8377
▁lactobac	-8378
▁lienviet	-8379
▁lutheran	-8380
▁marriott	-8381
▁masatada	-8382
▁mcgregor	-8383
▁mckinsey	-8384
▁medeiros	-8385
▁megabyte	-8386
▁meyhomes	-8387
▁michelle	-8388
▁missouri	-8389
▁morikawa	-8390
▁morrison	-8391
▁mátxcơva	-8392
▁narendra	-8393
▁nintendo	-8394
▁northern	-8395
▁novodoor	-8396
▁oliveira	-8397
▁panorama	-8398
▁partners	-8399
▁pospisil	-8400
▁pulitzer	-8401
▁research	-8402
▁roadshow	-8403
▁sahakyan	-8404
▁sapphire	-8405
▁savantam	-8406
▁showroom	-8407
▁sociedad	-8408
▁starters	-8409
▁streamer	-8410
▁sullivan	-8411
▁syngenta	-8412
▁tiktoker	-8413
▁tivibank	-8414
▁tomorrow	-8415
▁townsend	-8416
▁unmanned	-8417
▁vietbank	-8418
▁vietlott	-8419
▁vinashin	-8420
▁wellness	-8421
▁westlife	-8422
▁xiaoling	-8423
▁xiaoyuan	-8424
rawarachat	-8425
▁amagasaki	-8426
▁amsterdam	-8427
▁bacterium	-8428
▁bioamicus	-8429
▁bluetooth	-8430
▁bolshevik	-8431
▁borshchev	-8432
▁buffaloes	-8433
▁byzantine	-8434
▁caribbean	-8435
▁challenge	-8436
▁chatnalin	-8437
▁chịpretty	-8438
▁cosmetics	-8439
▁discovery	-8440
▁economist	-8441
▁education	-8442
▁francisco	-8443
▁friedrich	-8444
▁greenland	-8445
▁griffiths	-8446
▁groneveld	-8447
▁hiroshima	-8448
▁hollywood	-8449
▁ibuprofen	-8450
▁indochine	-8451
▁infantino	-8452
▁jerusalem	-8453
▁kaipentus	-8454
▁kilometre	-8455
▁lifestyle	-8456
▁limitless	-8457
▁margrethe	-8458
▁mctominay	-8459
▁microsoft	-8460
▁minnesota	-8461
▁moonlight	-8462
▁nicholson	-8463
▁nouvelles	-8464
▁nutricare	-8465
▁pineapple	-8466
▁plantarum	-8467
▁priyankar	-8468
▁ratcliffe	-8469
▁reichstag	-8470
▁scheffler	-8471
▁schillaci	-8472
▁shontelle	-8473
▁shophouse	-8474
▁shoreland	-8475
▁smarttech	-8476
▁soleimani	-8477
▁solutions	-8478
▁southgate	-8479
▁sportbike	-8480
▁stargazer	-8481
▁swaziland	-8482
▁talksport	-8483
▁telephoto	-8484
▁telesales	-8485
▁theodorus	-8486
▁todexilas	-8487
▁tomodachi	-8488
▁vinacomin	-8489
▁vizhinjam	-8490
▁abramovich	-8491
▁antoinette	-8492
▁background	-8493
▁bangladesh	-8494
▁batdongsan	-8495
▁bridgefest	-8496
▁bundesliga	-8497
▁california	-8498
▁collection	-8499
▁conference	-8500
▁connecting	-8501
▁convention	-8502
▁cybertruck	-8503
▁doppelherz	-8504
▁débutantes	-8505
▁escribeano	-8506
▁evergrande	-8507
▁fiorentina	-8508
▁frontières	-8509
▁haprosimex	-8510
▁ivanisevic	-8511
▁jacqueline	-8512
▁jutanugarn	-8513
▁mastercard	-8514
▁penicillin	-8515
▁petrolimex	-8516
▁phrynosoma	-8517
▁playersbio	-8518
▁plinazolin	-8519
▁setechviet	-8520
▁shinawatra	-8521
▁smartwatch	-8522
▁tajikistan	-8523
▁tasteatlas	-8524
▁terataydee	-8525
▁thodecilas	-8526
▁vertonghen	-8527
▁viacheslav	-8528
▁vietcredit	-8529
▁viettelpay	-8530
▁vinwonders	-8531
▁vostricker	-8532
▁yanukovych	-8533
▁yarmolenko	-8534
▁chainalysis	-8535
▁chandrayaan	-8536
▁cholesterol	-8537
▁christensen	-8538
▁cooperative	-8539
▁fourfourtow	-8540
▁hospitality	-8541
▁infograhics	-8542
▁kazakhstani	-8543
▁lamborghini	-8544
▁metareverse	-8545
▁missosology	-8546
▁polytechnic	-8547
▁ratajkowski	-8548
▁springfield	-8549
▁stoltenberg	-8550
▁tavatanakit	-8551
▁tripadvisor	-8552
▁underground	-8553
▁architecture	-8554
▁counterpoint	-8555
▁infographics	-8556
▁michelangelo	-8557
▁newfoundland	-8558
▁savantamundi	-8559
▁technologies	-8560
▁testosterone	-8561
▁lactobacillus	-8562
▁thuringiensis	-8563
▁transfermarkt	-8564
▁transgondwana	-8565
▁fivethirtyeight	-8566
▁unconditionally	-8567
ah	-8568
aq	-8569
az	-8570
bl	-8571
bá	-8572
bâ	-8573
bã	-8574
bè	-8575
bê	-8576
bò	-8577
bó	-8578
bú	-8579
bă	-8580
bạ	-8581
bả	-8582
bấ	-8583
bầ	-8584
bẫ	-8585
bậ	-8586
bắ	-8587
bằ	-8588
bặ	-8589
bẻ	-8590
bề	-8591
bệ	-8592
bị	-8593
bọ	-8594
bỏ	-8595
bố	-8596
bổ	-8597
bỗ	-8598
bộ	-8599
bt	-8600
bở	-8601
bữ	-8602
cd	-8603
cg	-8604
cx	-8605
cá	-8606
câ	-8607
cã	-8608
cò	-8609
có	-8610
cô	-8611
cù	-8612
că	-8613
cũ	-8614
cư	-8615
cả	-8616
cấ	-8617
cầ	-8618
cẩ	-8619
cặ	-8620
cọ	-8621
cố	-8622
cụ	-8623
củ	-8624
cứ	-8625
cừ	-8626
dc	-8627
dg	-8628
dl	-8629
dâ	-8630
dù	-8631
dư	-8632
dầ	-8633
dẫ	-8634
dẹ	-8635
dế	-8636
dễ	-8637
dị	-8638
dờ	-8639
dụ	-8640
dứ	-8641
dữ	-8642
dự	-8643
eu	-8644
fg	-8645
fp	-8646
fs	-8647
fv	-8648
gb	-8649
gk	-8650
gy	-8651
gà	-8652
gá	-8653
gâ	-8654
gã	-8655
gì	-8656
gó	-8657
gú	-8658
gă	-8659
gư	-8660
gạ	-8661
gấ	-8662
gầ	-8663
gẫ	-8664
gọ	-8665
gố	-8666
gớ	-8667
gỡ	-8668
gợ	-8669
gủ	-8670
gừ	-8671
gử	-8672
hd	-8673
he	-8674
hk	-8675
ht	-8676
hz	-8677
hà	-8678
há	-8679
hâ	-8680
hã	-8681
hè	-8682
hê	-8683
hì	-8684
hí	-8685
hò	-8686
hó	-8687
hô	-8688
hú	-8689
hĩ	-8690
hơ	-8691
hư	-8692
hạ	-8693
hả	-8694
hấ	-8695
hầ	-8696
hẩ	-8697
hẫ	-8698
hậ	-8699
af	-8700
bì	-8701
cà	-8702
cộ	-8703
cở	-8704
dà	-8705
dậ	-8706
dố	-8707
dừ	-8708
ee	-8709
gặ	-8710
gở	-8711
gứ	-8712
gự	-8713
hp	-8714
hé	-8715
hă	-8716
hắ	-8717
hẳ	-8718
hẹ	-8719
hẻ	-8720
hế	-8721
hề	-8722
hể	-8723
hệ	-8724
hỉ	-8725
hị	-8726
họ	-8727
hỏ	-8728
hố	-8729
hồ	-8730
hổ	-8731
hỗ	-8732
hộ	-8733
hớ	-8734
hờ	-8735
hợ	-8736
hụ	-8737
hủ	-8738
hứ	-8739
hử	-8740
hữ	-8741
hự	-8742
ii	-8743
iw	-8744
iz	-8745
ià	-8746
iá	-8747
iè	-8748
iê	-8749
iô	-8750
iù	-8751
iú	-8752
iả	-8753
iậ	-8754
iằ	-8755
iế	-8756
iề	-8757
iễ	-8758
iố	-8759
iớ	-8760
iờ	-8761
iở	-8762
iữ	-8763
iự	-8764
ja	-8765
jm	-8766
kb	-8767
kh	-8768
ki	-8769
kl	-8770
kr	-8771
kv	-8772
kè	-8773
ké	-8774
kê	-8775
kì	-8776
kô	-8777
ký	-8778
kĩ	-8779
kế	-8780
kể	-8781
kệ	-8782
kỉ	-8783
kỳ	-8784
kỹ	-8785
là	-8786
lá	-8787
lâ	-8788
lã	-8789
lê	-8790
lì	-8791
lò	-8792
lù	-8793
lú	-8794
lý	-8795
lă	-8796
lĩ	-8797
lũ	-8798
lư	-8799
bh	-8800
bư	-8801
bẩ	-8802
bớ	-8803
bứ	-8804
cậ	-8805
cử	-8806
cự	-8807
dở	-8808
gô	-8809
gũ	-8810
gắ	-8811
hg	-8812
hù	-8813
iấ	-8814
lg	-8815
lí	-8816
lạ	-8817
lả	-8818
lấ	-8819
lầ	-8820
lẫ	-8821
lậ	-8822
lắ	-8823
lẻ	-8824
lẽ	-8825
lề	-8826
lị	-8827
lọ	-8828
lồ	-8829
lỗ	-8830
lớ	-8831
lờ	-8832
lỡ	-8833
lợ	-8834
lự	-8835
mc	-8836
mh	-8837
mn	-8838
mp	-8839
mu	-8840
mv	-8841
my	-8842
mà	-8843
má	-8844
mã	-8845
mé	-8846
mì	-8847
mó	-8848
mô	-8849
mũ	-8850
mơ	-8851
mư	-8852
mạ	-8853
mả	-8854
mấ	-8855
mậ	-8856
mắ	-8857
mặ	-8858
mẹ	-8859
mẻ	-8860
mệ	-8861
mị	-8862
mọ	-8863
mỏ	-8864
mố	-8865
mồ	-8866
mổ	-8867
mỗ	-8868
mộ	-8869
mớ	-8870
mờ	-8871
mở	-8872
mỡ	-8873
mụ	-8874
mủ	-8875
mứ	-8876
mừ	-8877
mỹ	-8878
nl	-8879
nn	-8880
nq	-8881
nu	-8882
nà	-8883
nâ	-8884
nã	-8885
nè	-8886
nê	-8887
nó	-8888
nô	-8889
nă	-8890
nơ	-8891
nư	-8892
nắ	-8893
nằ	-8894
nế	-8895
nề	-8896
nỉ	-8897
nọ	-8898
nố	-8899
bn	-8900
bí	-8901
bơ	-8902
cạ	-8903
cắ	-8904
cỏ	-8905
cổ	-8906
dò	-8907
gồ	-8908
gờ	-8909
gữ	-8910
hv	-8911
hằ	-8912
hặ	-8913
hở	-8914
hừ	-8915
iâ	-8916
kí	-8917
kẹ	-8918
kị	-8919
lz	-8920
lẩ	-8921
lặ	-8922
lễ	-8923
lệ	-8924
lộ	-8925
mê	-8926
mù	-8927
mẫ	-8928
mẽ	-8929
nạ	-8930
nặ	-8931
nổ	-8932
nỗ	-8933
nộ	-8934
nợ	-8935
nữ	-8936
oa	-8937
oe	-8938
of	-8939
oi	-8940
oj	-8941
ox	-8942
oz	-8943
oà	-8944
oá	-8945
oê	-8946
oạ	-8947
oả	-8948
oắ	-8949
oặ	-8950
pg	-8951
pk	-8952
pn	-8953
pu	-8954
pô	-8955
rb	-8956
rc	-8957
rn	-8958
rv	-8959
rw	-8960
rà	-8961
rá	-8962
râ	-8963
rè	-8964
ré	-8965
rê	-8966
rì	-8967
rí	-8968
rò	-8969
rõ	-8970
rú	-8971
ră	-8972
rĩ	-8973
rư	-8974
rạ	-8975
rả	-8976
rấ	-8977
rầ	-8978
rậ	-8979
rằ	-8980
rẻ	-8981
rẽ	-8982
rề	-8983
rễ	-8984
rị	-8985
rọ	-8986
rồ	-8987
rộ	-8988
rớ	-8989
rờ	-8990
rở	-8991
rỡ	-8992
rợ	-8993
rụ	-8994
rủ	-8995
rứ	-8996
rừ	-8997
rữ	-8998
rự	-8999
bế	-9000
bỉ	-9001
bồ	-9002
dá	-9003
dè	-9004
dê	-9005
dõ	-9006
dú	-9007
dũ	-9008
dấ	-9009
gò	-9010
hõ	-9011
hũ	-9012
hẽ	-9013
iã	-9014
ió	-9015
iỏ	-9016
iụ	-9017
kẻ	-9018
lô	-9019
lố	-9020
lụ	-9021
lừ	-9022
lử	-9023
mề	-9024
nt	-9025
né	-9026
nú	-9027
nệ	-9028
nử	-9029
ot	-9030
oọ	-9031
pb	-9032
rs	-9033
rt	-9034
rx	-9035
rã	-9036
rơ	-9037
rẫ	-9038
rắ	-9039
rố	-9040
sl	-9041
sr	-9042
su	-9043
sà	-9044
sá	-9045
sâ	-9046
sê	-9047
só	-9048
sô	-9049
să	-9050
sĩ	-9051
sơ	-9052
sư	-9053
sạ	-9054
sả	-9055
sấ	-9056
sậ	-9057
sắ	-9058
sẹ	-9059
sẻ	-9060
sẽ	-9061
sế	-9062
sệ	-9063
số	-9064
sổ	-9065
sớ	-9066
sờ	-9067
sở	-9068
sỡ	-9069
sợ	-9070
sứ	-9071
sử	-9072
sữ	-9073
sự	-9074
tb	-9075
tk	-9076
tr	-9077
tu	-9078
tà	-9079
tá	-9080
tâ	-9081
té	-9082
tê	-9083
tì	-9084
tí	-9085
tò	-9086
tó	-9087
tù	-9088
tú	-9089
tă	-9090
tĩ	-9091
tư	-9092
tạ	-9093
tả	-9094
tấ	-9095
tầ	-9096
tẩ	-9097
tậ	-9098
tắ	-9099
bk	-9100
bù	-9101
bờ	-9102
bụ	-9103
bự	-9104
cõ	-9105
cú	-9106
cờ	-9107
cỡ	-9108
dí	-9109
dắ	-9110
dọ	-9111
dồ	-9112
fr	-9113
gg	-9114
gl	-9115
gơ	-9116
gậ	-9117
gỗ	-9118
gộ	-9119
iơ	-9120
iặ	-9121
iọ	-9122
iỡ	-9123
lp	-9124
me	-9125
mò	-9126
mầ	-9127
mự	-9128
nụ	-9129
ou	-9130
oã	-9131
pl	-9132
pr	-9133
rô	-9134
sé	-9135
tặ	-9136
tẹ	-9137
tế	-9138
tể	-9139
tệ	-9140
tỉ	-9141
tị	-9142
tỏ	-9143
tố	-9144
tồ	-9145
tổ	-9146
tộ	-9147
tớ	-9148
tờ	-9149
tụ	-9150
tủ	-9151
tứ	-9152
từ	-9153
tử	-9154
tự	-9155
ue	-9156
ui	-9157
uu	-9158
uà	-9159
uá	-9160
uâ	-9161
uê	-9162
uô	-9163
uý	-9164
uạ	-9165
uả	-9166
uấ	-9167
uầ	-9168
uẩ	-9169
uẫ	-9170
uậ	-9171
uặ	-9172
uẹ	-9173
uế	-9174
uệ	-9175
uố	-9176
uồ	-9177
uổ	-9178
uỗ	-9179
uộ	-9180
uở	-9181
uỳ	-9182
uỹ	-9183
vb	-9184
vd	-9185
vp	-9186
vr	-9187
vs	-9188
vt	-9189
vu	-9190
và	-9191
vá	-9192
vâ	-9193
vé	-9194
vê	-9195
vì	-9196
ví	-9197
vò	-9198
vó	-9199
ax	-9200
bô	-9201
bể	-9202
bừ	-9203
cl	-9204
db	-9205
dj	-9206
dợ	-9207
eh	-9208
ix	-9209
iư	-9210
jo	-9211
kc	-9212
lk	-9213
lé	-9214
lõ	-9215
lẹ	-9216
mb	-9217
mm	-9218
mâ	-9219
mè	-9220
mế	-9221
mỉ	-9222
np	-9223
ns	-9224
nấ	-9225
nầ	-9226
nở	-9227
nự	-9228
rd	-9229
rg	-9230
rù	-9231
rệ	-9232
rỗ	-9233
sỉ	-9234
sủ	-9235
sỹ	-9236
tý	-9237
ub	-9238
vã	-9239
vô	-9240
võ	-9241
vù	-9242
vă	-9243
vĩ	-9244
vũ	-9245
vơ	-9246
vư	-9247
vạ	-9248
vả	-9249
vấ	-9250
vầ	-9251
vẩ	-9252
vẫ	-9253
vậ	-9254
vắ	-9255
vằ	-9256
vặ	-9257
vẹ	-9258
vẻ	-9259
vẽ	-9260
vế	-9261
về	-9262
vệ	-9263
vị	-9264
vọ	-9265
vỏ	-9266
vố	-9267
vỗ	-9268
vộ	-9269
vớ	-9270
vờ	-9271
vỡ	-9272
vợ	-9273
vụ	-9274
vừ	-9275
vữ	-9276
vự	-9277
wc	-9278
we	-9279
wf	-9280
wu	-9281
xa	-9282
xe	-9283
xo	-9284
xà	-9285
xá	-9286
xâ	-9287
xé	-9288
xê	-9289
xí	-9290
xó	-9291
xô	-9292
xù	-9293
xú	-9294
xă	-9295
xơ	-9296
xư	-9297
xạ	-9298
xả	-9299
ab	-9300
ae	-9301
bỡ	-9302
cỗ	-9303
cớ	-9304
dt	-9305
dã	-9306
dì	-9307
dằ	-9308
dặ	-9309
dẻ	-9310
dẽ	-9311
dộ	-9312
fd	-9313
gm	-9314
hỡ	-9315
ib	-9316
kề	-9317
lằ	-9318
lế	-9319
lỏ	-9320
lứ	-9321
mú	-9322
mẩ	-9323
nc	-9324
nf	-9325
ná	-9326
nả	-9327
nồ	-9328
nớ	-9329
oh	-9330
px	-9331
rũ	-9332
rặ	-9333
rổ	-9334
rử	-9335
sc	-9336
sã	-9337
sú	-9338
sầ	-9339
sẩ	-9340
tọ	-9341
uc	-9342
uã	-9343
ué	-9344
vở	-9345
xấ	-9346
xẩ	-9347
xế	-9348
xỉ	-9349
xỏ	-9350
xố	-9351
xồ	-9352
xổ	-9353
xở	-9354
xứ	-9355
xử	-9356
yb	-9357
yc	-9358
yi	-9359
yl	-9360
yt	-9361
yu	-9362
yw	-9363
yê	-9364
yế	-9365
yề	-9366
yể	-9367
yễ	-9368
yệ	-9369
zb	-9370
zd	-9371
zi	-9372
áu	-9373
ãm	-9374
èg	-9375
íc	-9376
ím	-9377
óp	-9378
ôg	-9379
õn	-9380
ùy	-9381
úk	-9382
ún	-9383
úy	-9384
ýn	-9385
đa	-9386
đe	-9387
đo	-9388
đu	-9389
đà	-9390
đá	-9391
đâ	-9392
đã	-9393
đè	-9394
đé	-9395
đê	-9396
đì	-9397
đí	-9398
đò	-9399
cồ	-9400
dm	-9401
dr	-9402
dé	-9403
dô	-9404
dơ	-9405
dệ	-9406
dỗ	-9407
dỡ	-9408
gõ	-9409
gù	-9410
gổ	-9411
gụ	-9412
hl	-9413
ir	-9414
iu	-9415
je	-9416
kp	-9417
ls	-9418
lơ	-9419
lữ	-9420
mợ	-9421
ní	-9422
nậ	-9423
nứ	-9424
os	-9425
oă	-9426
py	-9427
rể	-9428
rỉ	-9429
sd	-9430
sn	-9431
sw	-9432
sụ	-9433
tc	-9434
tn	-9435
tw	-9436
tè	-9437
tơ	-9438
uo	-9439
vf	-9440
vứ	-9441
wi	-9442
xẻ	-9443
yd	-9444
đh	-9445
đó	-9446
đô	-9447
đù	-9448
đú	-9449
đă	-9450
đĩ	-9451
đũ	-9452
đơ	-9453
đư	-9454
đạ	-9455
đả	-9456
đấ	-9457
đầ	-9458
đẩ	-9459
đậ	-9460
đắ	-9461
đằ	-9462
đẳ	-9463
đặ	-9464
đẹ	-9465
đẻ	-9466
đẽ	-9467
đế	-9468
đề	-9469
để	-9470
đệ	-9471
đỉ	-9472
đị	-9473
đọ	-9474
đỏ	-9475
đố	-9476
đồ	-9477
đổ	-9478
đỗ	-9479
độ	-9480
đớ	-9481
đờ	-9482
đỡ	-9483
đợ	-9484
đụ	-9485
đủ	-9486
đứ	-9487
đừ	-9488
đự	-9489
ĩn	-9490
ũn	-9491
ũy	-9492
ơv	-9493
ưn	-9494
ưở	-9495
ưỡ	-9496
ệc	-9497
ệm	-9498
ệp	-9499
av	-9500
aị	-9501
bb	-9502
bm	-9503
cy	-9504
cẳ	-9505
dd	-9506
dh	-9507
dả	-9508
dề	-9509
ez	-9510
fl	-9511
gn	-9512
gỏ	-9513
hr	-9514
hý	-9515
ih	-9516
ju	-9517
kg	-9518
kn	-9519
kẽ	-9520
ló	-9521
mg	-9522
mí	-9523
mă	-9524
nb	-9525
nj	-9526
nm	-9527
nẹ	-9528
oy	-9529
oé	-9530
oằ	-9531
oẻ	-9532
pú	-9533
qa	-9534
sb	-9535
sf	-9536
sò	-9537
sẫ	-9538
sọ	-9539
sồ	-9540
sừ	-9541
tễ	-9542
uw	-9543
uă	-9544
uẻ	-9545
uớ	-9546
vú	-9547
vỹ	-9548
wb	-9549
xs	-9550
xt	-9551
xì	-9552
xị	-9553
ye	-9554
đỳ	-9555
ẻm	-9556
ệu	-9557
ỉa	-9558
ỉm	-9559
ỉn	-9560
ịc	-9561
ịu	-9562
ịớ	-9563
ọp	-9564
ỏn	-9565
ỗn	-9566
ớc	-9567
ớu	-9568
ờm	-9569
ởn	-9570
ợc	-9571
ợu	-9572
ụa	-9573
ụn	-9574
ụy	-9575
ủn	-9576
ứn	-9577
ừm	-9578
ừn	-9579
ừu	-9580
ửu	-9581
ữn	-9582
ựn	-9583
ựu	-9584
ỳn	-9585
▁â	-9586
▁é	-9587
▁ò	-9588
▁ó	-9589
▁ă	-9590
▁ấ	-9591
▁ậ	-9592
▁ắ	-9593
▁ọ	-9594
▁ỏ	-9595
▁ủ	-9596
▁ứ	-9597
act	-9598
aic	-9599
aj	-9600
cằ	-9601
cợ	-9602
dẳ	-9603
gả	-9604
iò	-9605
iầ	-9606
iỗ	-9607
km	-9608
lm	-9609
lx	-9610
lở	-9611
mĩ	-9612
nr	-9613
nv	-9614
nể	-9615
nị	-9616
pd	-9617
pê	-9618
pù	-9619
qr	-9620
qđ	-9621
rz	-9622
ró	-9623
rỏ	-9624
sì	-9625
sí	-9626
sù	-9627
sỏ	-9628
sộ	-9629
tg	-9630
tq	-9631
ux	-9632
uz	-9633
uể	-9634
vc	-9635
vỉ	-9636
wh	-9637
wt	-9638
xx	-9639
xộ	-9640
yg	-9641
yp	-9642
zy	-9643
ôt	-9644
ợm	-9645
ửn	-9646
alm	-9647
alp	-9648
amu	-9649
anm	-9650
anp	-9651
anu	-9652
aoc	-9653
aon	-9654
aoy	-9655
aqu	-9656
aro	-9657
ass	-9658
ast	-9659
att	-9660
aud	-9661
aye	-9662
azz	-9663
ban	-9664
bhi	-9665
bsc	-9666
cal	-9667
cao	-9668
cat	-9669
cha	-9670
chn	-9671
chr	-9672
chs	-9673
cio	-9674
col	-9675
cqu	-9676
ead	-9677
eag	-9678
eal	-9679
eau	-9680
eco	-9681
ela	-9682
eng	-9683
enn	-9684
eru	-9685
esc	-9686
eso	-9687
esr	-9688
etp	-9689
ews	-9690
fai	-9691
fel	-9692
fet	-9693
ffi	-9694
fit	-9695
for	-9696
gat	-9697
gle	-9698
gus	-9699
bg	-9700
bẹ	-9701
bợ	-9702
bủ	-9703
cq	-9704
cz	-9705
dn	-9706
gt	-9707
gẩ	-9708
hq	-9709
hs	-9710
hw	-9711
hễ	-9712
iũ	-9713
iứ	-9714
jc	-9715
lè	-9716
lỉ	-9717
lỳ	-9718
mỳ	-9719
nx	-9720
nù	-9721
pc	-9722
rf	-9723
tf	-9724
tj	-9725
tx	-9726
tz	-9727
tẻ	-9728
uf	-9729
vồ	-9730
xc	-9731
xl	-9732
yh	-9733
zv	-9734
àđ	-9735
úm	-9736
đẫ	-9737
ơu	-9738
ưi	-9739
ẻn	-9740
ẽo	-9741
ỏm	-9742
▁ẹ	-9743
anl	-9744
ayd	-9745
cho	-9746
gef	-9747
hak	-9748
har	-9749
hig	-9750
hnn	-9751
hou	-9752
ici	-9753
ifi	-9754
igh	-9755
iji	-9756
ikh	-9757
imi	-9758
imo	-9759
inb	-9760
inm	-9761
inv	-9762
ipp	-9763
iup	-9764
iến	-9765
iềm	-9766
iều	-9767
kch	-9768
kho	-9769
kum	-9770
kur	-9771
let	-9772
lev	-9773
lia	-9774
lit	-9775
lks	-9776
llè	-9777
lom	-9778
lov	-9779
lum	-9780
lym	-9781
met	-9782
mng	-9783
mor	-9784
môn	-9785
nar	-9786
nat	-9787
nay	-9788
nch	-9789
ngf	-9790
ngo	-9791
ngr	-9792
ngs	-9793
ngt	-9794
ngu	-9795
ngà	-9796
ngá	-9797
ngâ	-9798
ngò	-9799
cv	-9800
df	-9801
gf	-9802
nw	-9803
nẻ	-9804
nờ	-9805
oò	-9806
qi	-9807
sy	-9808
tề	-9809
tỳ	-9810
uí	-9811
uắ	-9812
vv	-9813
vè	-9814
wl	-9815
wr	-9816
wy	-9817
xè	-9818
xẹ	-9819
zl	-9820
aiz	-9821
ams	-9822
aok	-9823
arc	-9824
ngb	-9825
ngh	-9826
ngi	-9827
ngl	-9828
ngã	-9829
ngó	-9830
ngô	-9831
ngõ	-9832
ngù	-9833
ngă	-9834
ngũ	-9835
ngơ	-9836
ngư	-9837
ngạ	-9838
ngả	-9839
ngấ	-9840
ngầ	-9841
ngẩ	-9842
ngẫ	-9843
ngậ	-9844
ngắ	-9845
ngặ	-9846
ngọ	-9847
ngỏ	-9848
ngố	-9849
ngồ	-9850
ngổ	-9851
ngộ	-9852
ngớ	-9853
ngờ	-9854
ngỡ	-9855
ngợ	-9856
ngụ	-9857
ngủ	-9858
ngừ	-9859
ngử	-9860
ngữ	-9861
ngự	-9862
nht	-9863
nhu	-9864
nhâ	-9865
nhé	-9866
nhì	-9867
nhó	-9868
nhĩ	-9869
nhơ	-9870
như	-9871
nhạ	-9872
nhấ	-9873
nhậ	-9874
nhắ	-9875
nhằ	-9876
nhặ	-9877
nhẽ	-9878
nhọ	-9879
nhố	-9880
nhồ	-9881
nhờ	-9882
nhở	-9883
nhụ	-9884
nhừ	-9885
nhữ	-9886
nin	-9887
nlo	-9888
obo	-9889
ock	-9890
odc	-9891
oep	-9892
oko	-9893
omb	-9894
omi	-9895
omm	-9896
ond	-9897
opy	-9898
orb	-9899
anv	-9900
aom	-9901
enh	-9902
itn	-9903
liệ	-9904
ngú	-9905
ngứ	-9906
nha	-9907
nhe	-9908
nhi	-9909
nho	-9910
nhà	-9911
nhá	-9912
nhã	-9913
nhè	-9914
nhí	-9915
nhò	-9916
nhõ	-9917
nhú	-9918
nhă	-9919
nhũ	-9920
nhả	-9921
nhầ	-9922
nhẫ	-9923
nhẹ	-9924
nhẻ	-9925
nhể	-9926
nhệ	-9927
nhỉ	-9928
nhị	-9929
nhỏ	-9930
nhổ	-9931
nhộ	-9932
nhớ	-9933
nhỡ	-9934
nhủ	-9935
nhứ	-9936
nhử	-9937
nhự	-9938
onk	-9939
osa	-9940
otl	-9941
oun	-9942
oàn	-9943
oái	-9944
oát	-9945
oăm	-9946
oắt	-9947
oọc	-9948
pan	-9949
pel	-9950
ppi	-9951
pri	-9952
pti	-9953
qui	-9954
quí	-9955
quý	-9956
quă	-9957
quẩ	-9958
quẫ	-9959
quậ	-9960
quắ	-9961
quặ	-9962
quẹ	-9963
quố	-9964
quớ	-9965
rav	-9966
raz	-9967
rch	-9968
rel	-9969
rge	-9970
rne	-9971
roh	-9972
roo	-9973
ruy	-9974
sak	-9975
sal	-9976
sem	-9977
ser	-9978
she	-9979
som	-9980
spr	-9981
tal	-9982
tat	-9983
tbi	-9984
tti	-9985
tvi	-9986
uar	-9987
uet	-9988
uis	-9989
uno	-9990
uns	-9991
uro	-9992
uyể	-9993
uyễ	-9994
uên	-9995
uần	-9996
uối	-9997
uốt	-9998
uồi	-9999
aer	-10000
ede	-10001
hot	-10002
inj	-10003
lav	-10004
pag	-10005
tra	-10006
uồn	-10007
uộc	-10008
uột	-10009
vad	-10010
var	-10011
vca	-10012
vib	-10013
vka	-10014
wal	-10015
wan	-10016
wbi	-10017
wes	-10018
wim	-10019
xci	-10020
xem	-10021
yal	-10022
yao	-10023
yem	-10024
yer	-10025
ynh	-10026
yom	-10027
ysi	-10028
yêu	-10029
yền	-10030
zol	-10031
zuk	-10032
ãnh	-10033
èng	-10034
ýnh	-10035
ơng	-10036
ưới	-10037
ạmo	-10038
ểng	-10039
ệch	-10040
ệng	-10041
ớng	-10042
ợng	-10043
▁aa	-10044
▁bg	-10045
▁bh	-10046
▁bă	-10047
▁bư	-10048
▁bầ	-10049
▁bẩ	-10050
▁bắ	-10051
▁bặ	-10052
▁bẹ	-10053
▁bụ	-10054
▁bủ	-10055
▁bừ	-10056
▁cc	-10057
▁cp	-10058
▁cs	-10059
▁câ	-10060
▁cã	-10061
▁cõ	-10062
▁că	-10063
▁cạ	-10064
▁cấ	-10065
▁cầ	-10066
▁cẩ	-10067
▁cậ	-10068
▁cắ	-10069
▁cằ	-10070
▁cẳ	-10071
▁cặ	-10072
▁cồ	-10073
▁cở	-10074
▁cợ	-10075
▁dá	-10076
▁dâ	-10077
▁dí	-10078
▁dõ	-10079
▁dũ	-10080
▁dấ	-10081
▁dắ	-10082
▁dằ	-10083
▁dồ	-10084
▁dộ	-10085
▁dừ	-10086
▁gd	-10087
▁gs	-10088
▁gy	-10089
▁gũ	-10090
▁gẫ	-10091
▁gậ	-10092
▁gặ	-10093
▁gọ	-10094
▁gố	-10095
▁gớ	-10096
▁gủ	-10097
▁gử	-10098
▁hc	-10099
aur	-10100
ayg	-10101
ayt	-10102
chu	-10103
dai	-10104
dem	-10105
eel	-10106
lod	-10107
lus	-10108
pon	-10109
quâ	-10110
quệ	-10111
tur	-10112
uec	-10113
uyc	-10114
wen	-10115
yên	-10116
▁bm	-10117
▁gl	-10118
▁hl	-10119
▁hq	-10120
▁ht	-10121
▁hv	-10122
▁hâ	-10123
▁hê	-10124
▁hì	-10125
▁hí	-10126
▁hó	-10127
▁hă	-10128
▁hĩ	-10129
▁hơ	-10130
▁hấ	-10131
▁hầ	-10132
▁hẩ	-10133
▁hẫ	-10134
▁hậ	-10135
▁hắ	-10136
▁hằ	-10137
▁hẳ	-10138
▁hế	-10139
▁hị	-10140
▁hợ	-10141
▁hụ	-10142
▁hứ	-10143
▁hừ	-10144
▁hữ	-10145
▁hự	-10146
▁ie	-10147
▁ik	-10148
▁iw	-10149
▁ké	-10150
▁kẹ	-10151
▁lâ	-10152
▁lè	-10153
▁lé	-10154
▁lõ	-10155
▁lă	-10156
▁lĩ	-10157
▁lả	-10158
▁lấ	-10159
▁lầ	-10160
▁lẫ	-10161
▁lậ	-10162
▁lắ	-10163
▁lằ	-10164
▁lặ	-10165
▁lế	-10166
▁lỏ	-10167
▁lừ	-10168
▁lử	-10169
▁mm	-10170
▁mp	-10171
▁mr	-10172
▁mâ	-10173
▁mé	-10174
▁mú	-10175
▁mă	-10176
▁mũ	-10177
▁mả	-10178
▁mấ	-10179
▁mầ	-10180
▁mẩ	-10181
▁mẫ	-10182
▁mậ	-10183
▁mắ	-10184
▁mặ	-10185
▁mế	-10186
▁mề	-10187
▁mị	-10188
▁mố	-10189
▁mỗ	-10190
▁mủ	-10191
▁mứ	-10192
▁mừ	-10193
▁mự	-10194
▁ns	-10195
▁nv	-10196
▁ná	-10197
▁nâ	-10198
▁nê	-10199
apd	-10200
bao	-10201
dii	-10202
etl	-10203
iet	-10204
ins	-10205
mon	-10206
oor	-10207
oro	-10208
quế	-10209
quỹ	-10210
sos	-10211
uid	-10212
uấn	-10213
uội	-10214
zen	-10215
▁bk	-10216
▁bấ	-10217
▁bẫ	-10218
▁bậ	-10219
▁bằ	-10220
▁bọ	-10221
▁bỗ	-10222
▁bớ	-10223
▁bứ	-10224
▁bữ	-10225
▁bự	-10226
▁ds	-10227
▁gấ	-10228
▁kb	-10229
▁kl	-10230
▁kn	-10231
▁kp	-10232
▁kô	-10233
▁kị	-10234
▁lẩ	-10235
▁lỉ	-10236
▁ní	-10237
▁nù	-10238
▁nú	-10239
▁nă	-10240
▁nơ	-10241
▁nả	-10242
▁nấ	-10243
▁nầ	-10244
▁nậ	-10245
▁nắ	-10246
▁nằ	-10247
▁nặ	-10248
▁nẹ	-10249
▁nế	-10250
▁nị	-10251
▁nố	-10252
▁nồ	-10253
▁nứ	-10254
▁nử	-10255
▁nự	-10256
▁ou	-10257
▁ox	-10258
▁pg	-10259
▁pu	-10260
▁ró	-10261
▁rù	-10262
▁rư	-10263
▁rả	-10264
▁rẫ	-10265
▁rậ	-10266
▁rằ	-10267
▁rề	-10268
▁rệ	-10269
▁rớ	-10270
▁rờ	-10271
▁rợ	-10272
▁rự	-10273
▁sl	-10274
▁ss	-10275
▁sâ	-10276
▁sã	-10277
▁sé	-10278
▁sù	-10279
▁să	-10280
▁sấ	-10281
▁sẩ	-10282
▁sẫ	-10283
▁sắ	-10284
▁sệ	-10285
▁sớ	-10286
▁sừ	-10287
▁sữ	-10288
▁tc	-10289
▁td	-10290
▁te	-10291
▁tg	-10292
▁tn	-10293
▁ts	-10294
▁tw	-10295
▁tâ	-10296
▁tè	-10297
▁tó	-10298
▁tă	-10299
agn	-10300
arb	-10301
elí	-10302
enu	-10303
eop	-10304
etg	-10305
gin	-10306
inn	-10307
lai	-10308
lif	-10309
oni	-10310
oản	-10311
rty	-10312
sia	-10313
sov	-10314
ssí	-10315
uẫn	-10316
vik	-10317
▁dẳ	-10318
▁dặ	-10319
▁gá	-10320
▁gâ	-10321
▁gô	-10322
▁gù	-10323
▁gú	-10324
▁gă	-10325
▁gư	-10326
▁gầ	-10327
▁gắ	-10328
▁gộ	-10329
▁gở	-10330
▁gợ	-10331
▁gụ	-10332
▁se	-10333
▁sn	-10334
▁sr	-10335
▁sy	-10336
▁sà	-10337
▁sê	-10338
▁sí	-10339
▁sò	-10340
▁só	-10341
▁sú	-10342
▁sạ	-10343
▁sầ	-10344
▁sậ	-10345
▁sẹ	-10346
▁sế	-10347
▁sồ	-10348
▁sụ	-10349
▁sủ	-10350
▁tĩ	-10351
▁tấ	-10352
▁tầ	-10353
▁tẩ	-10354
▁tậ	-10355
▁tắ	-10356
▁tặ	-10357
▁tẹ	-10358
▁tọ	-10359
▁tồ	-10360
▁tộ	-10361
▁uf	-10362
▁ul	-10363
▁ur	-10364
▁ut	-10365
▁vc	-10366
▁vk	-10367
▁vl	-10368
▁vs	-10369
▁vt	-10370
▁vv	-10371
▁vâ	-10372
▁vè	-10373
▁vê	-10374
▁vó	-10375
▁vă	-10376
▁vư	-10377
▁vấ	-10378
▁vầ	-10379
▁vẩ	-10380
▁vẫ	-10381
▁vậ	-10382
▁vắ	-10383
▁vằ	-10384
▁vặ	-10385
▁vẹ	-10386
▁vọ	-10387
▁vộ	-10388
▁vứ	-10389
▁vừ	-10390
▁vữ	-10391
▁vự	-10392
▁wr	-10393
▁xú	-10394
▁xư	-10395
▁xẹ	-10396
▁xị	-10397
▁xố	-10398
▁xồ	-10399
aid	-10400
dow	-10401
eer	-10402
enj	-10403
erd	-10404
ifa	-10405
lac	-10406
nis	-10407
onl	-10408
quả	-10409
tem	-10410
tia	-10411
uôn	-10412
ơva	-10413
▁dh	-10414
▁dà	-10415
▁dé	-10416
▁dả	-10417
▁dầ	-10418
▁dẫ	-10419
▁dậ	-10420
▁dẹ	-10421
▁dệ	-10422
▁dọ	-10423
▁dờ	-10424
▁dứ	-10425
▁rá	-10426
▁ré	-10427
▁ră	-10428
▁rơ	-10429
▁rấ	-10430
▁rầ	-10431
▁rắ	-10432
▁rố	-10433
▁rừ	-10434
▁rử	-10435
▁xí	-10436
▁yo	-10437
▁zh	-10438
▁zv	-10439
▁ôt	-10440
▁đh	-10441
▁đâ	-10442
▁đé	-10443
▁đì	-10444
▁đí	-10445
▁đù	-10446
▁đú	-10447
▁đă	-10448
▁đũ	-10449
▁đư	-10450
▁đạ	-10451
▁đấ	-10452
▁đầ	-10453
▁đẩ	-10454
▁đẫ	-10455
▁đậ	-10456
▁đắ	-10457
▁đằ	-10458
▁đẳ	-10459
▁đặ	-10460
▁đẹ	-10461
▁đỉ	-10462
▁đọ	-10463
▁đớ	-10464
▁đờ	-10465
▁đợ	-10466
▁đứ	-10467
▁đừ	-10468
▁đự	-10469
▁ươ	-10470
▁ướ	-10471
acel	-10472
ache	-10473
acil	-10474
adis	-10475
alia	-10476
alin	-10477
allo	-10478
aloi	-10479
alta	-10480
amal	-10481
ambi	-10482
amin	-10483
amov	-10484
amra	-10485
anam	-10486
anch	-10487
anic	-10488
anis	-10489
anki	-10490
anne	-10491
anni	-10492
arad	-10493
arah	-10494
ards	-10495
aren	-10496
aria	-10497
arid	-10498
arin	-10499
aem	-10500
aol	-10501
ath	-10502
chc	-10503
coc	-10504
day	-10505
eek	-10506
eem	-10507
ekk	-10508
emp	-10509
ept	-10510
gar	-10511
hiệ	-10512
iem	-10513
lem	-10514
nen	-10515
pen	-10516
qua	-10517
quà	-10518
quá	-10519
rem	-10520
tid	-10521
une	-10522
xan	-10523
xil	-10524
yết	-10525
zem	-10526
zzi	-10527
êni	-10528
▁et	-10529
▁pb	-10530
▁rb	-10531
▁râ	-10532
▁rì	-10533
▁rị	-10534
▁rọ	-10535
▁rụ	-10536
▁rứ	-10537
▁xă	-10538
▁xấ	-10539
alic	-10540
arch	-10541
arga	-10542
artw	-10543
ater	-10544
ates	-10545
ativ	-10546
atur	-10547
augh	-10548
ayan	-10549
baby	-10550
bram	-10551
calo	-10552
cara	-10553
chai	-10554
chan	-10555
cher	-10556
ches	-10557
chet	-10558
chil	-10559
cien	-10560
cots	-10561
cure	-10562
danh	-10563
dger	-10564
diiv	-10565
dong	-10566
drid	-10567
dông	-10568
ecar	-10569
edev	-10570
elin	-10571
else	-10572
elto	-10573
emed	-10574
enal	-10575
eneg	-10576
enin	-10577
ensi	-10578
ensk	-10579
enti	-10580
enus	-10581
envi	-10582
eppa	-10583
erar	-10584
erek	-10585
eric	-10586
erne	-10587
erun	-10588
esal	-10589
esto	-10590
esty	-10591
etic	-10592
exil	-10593
feld	-10594
ford	-10595
gaby	-10596
gong	-10597
hanh	-10598
hinh	-10599
ael	-10600
aig	-10601
aip	-10602
ais	-10603
ait	-10604
amr	-10605
ayl	-10606
cas	-10607
chk	-10608
chv	-10609
elt	-10610
hch	-10611
iqu	-10612
iro	-10613
iti	-10614
iết	-10615
jay	-10616
lượ	-10617
mai	-10618
nai	-10619
oai	-10620
oay	-10621
quy	-10622
quã	-10623
quê	-10624
quạ	-10625
quấ	-10626
quầ	-10627
quẻ	-10628
quỳ	-10629
rao	-10630
reg	-10631
rôm	-10632
sai	-10633
sus	-10634
tch	-10635
uay	-10636
uổi	-10637
wei	-10638
yến	-10639
▁xà	-10640
▁xâ	-10641
▁xè	-10642
▁xó	-10643
▁xẩ	-10644
▁xộ	-10645
amen	-10646
anan	-10647
anle	-10648
aret	-10649
atra	-10650
eoul	-10651
espo	-10652
etro	-10653
ianh	-10654
icar	-10655
icle	-10656
inan	-10657
inch	-10658
ingr	-10659
ings	-10660
ingt	-10661
inho	-10662
inht	-10663
inpe	-10664
isco	-10665
isex	-10666
iter	-10667
iông	-10668
kkok	-10669
kong	-10670
leng	-10671
lies	-10672
ligh	-10673
liệu	-10674
llin	-10675
lliv	-10676
lomo	-10677
long	-10678
lowe	-10679
lter	-10680
lund	-10681
lông	-10682
mina	-10683
mund	-10684
neft	-10685
ngli	-10686
ngro	-10687
nich	-10688
nors	-10689
oang	-10690
oanh	-10691
oder	-10692
ogra	-10693
ollo	-10694
omin	-10695
onel	-10696
ongh	-10697
ongs	-10698
onli	-10699
aat	-10700
abi	-10701
anj	-10702
ann	-10703
anx	-10704
aus	-10705
can	-10706
dan	-10707
edm	-10708
hom	-10709
iao	-10710
jan	-10711
jim	-10712
lan	-10713
lun	-10714
nan	-10715
nri	-10716
nuy	-10717
oan	-10718
ols	-10719
ope	-10720
oru	-10721
oti	-10722
oán	-10723
oạn	-10724
oải	-10725
ppe	-10726
uya	-10727
uyn	-10728
uyế	-10729
uyề	-10730
uyệ	-10731
uân	-10732
uôi	-10733
uất	-10734
von	-10735
yan	-10736
zan	-10737
▁je	-10738
▁oá	-10739
▁yể	-10740
alay	-10741
anad	-10742
anga	-10743
cand	-10744
eong	-10745
esle	-10746
etra	-10747
iang	-10748
icas	-10749
inac	-10750
jong	-10751
nhan	-10752
odto	-10753
ongb	-10754
onya	-10755
oods	-10756
oper	-10757
oram	-10758
ores	-10759
orik	-10760
orri	-10761
orts	-10762
ovic	-10763
oảng	-10764
oằng	-10765
payl	-10766
ppin	-10767
quit	-10768
quên	-10769
rain	-10770
rams	-10771
ranh	-10772
ribe	-10773
rich	-10774
riel	-10775
rien	-10776
rier	-10777
rigu	-10778
riqu	-10779
rook	-10780
ross	-10781
rote	-10782
rway	-10783
rông	-10784
sang	-10785
semi	-10786
senk	-10787
sgon	-10788
ship	-10789
sigh	-10790
spor	-10791
stan	-10792
sten	-10793
stra	-10794
tail	-10795
tain	-10796
tect	-10797
tero	-10798
tify	-10799
acd	-10800
amb	-10801
amo	-10802
cte	-10803
dou	-10804
enk	-10805
iil	-10806
ipe	-10807
jut	-10808
lty	-10809
mbo	-10810
nsh	-10811
oen	-10812
ont	-10813
oài	-10814
rif	-10815
sab	-10816
slo	-10817
tar	-10818
uận	-10819
war	-10820
wns	-10821
▁ax	-10822
aled	-10823
alik	-10824
angl	-10825
ango	-10826
arab	-10827
bled	-10828
háng	-10829
lang	-10830
omet	-10831
oáng	-10832
tinh	-10833
tlan	-10834
tlet	-10835
tong	-10836
tpho	-10837
ttod	-10838
tvca	-10839
uanh	-10840
ukum	-10841
ulty	-10842
unta	-10843
uong	-10844
urne	-10845
usal	-10846
ussi	-10847
uthg	-10848
utta	-10849
uynh	-10850
uyển	-10851
uông	-10852
uồng	-10853
vara	-10854
vare	-10855
verg	-10856
vest	-10857
vics	-10858
vodo	-10859
wang	-10860
wara	-10861
wesi	-10862
xand	-10863
xanh	-10864
xông	-10865
yang	-10866
yank	-10867
yder	-10868
yong	-10869
zalo	-10870
ămng	-10871
ưỡng	-10872
▁adb	-10873
▁alp	-10874
▁anf	-10875
▁ani	-10876
▁ape	-10877
▁arg	-10878
▁ars	-10879
▁ase	-10880
▁asi	-10881
▁bab	-10882
▁bam	-10883
▁bhy	-10884
▁bid	-10885
▁big	-10886
▁bil	-10887
▁bio	-10888
▁biế	-10889
▁biể	-10890
▁biệ	-10891
▁bos	-10892
▁bte	-10893
▁buc	-10894
▁bun	-10895
▁buồ	-10896
▁bướ	-10897
▁caf	-10898
▁chr	-10899
aug	-10900
aul	-10901
aut	-10902
auv	-10903
bam	-10904
cad	-10905
din	-10906
dry	-10907
eam	-10908
eap	-10909
elp	-10910
iam	-10911
iêu	-10912
iếu	-10913
kad	-10914
kit	-10915
lau	-10916
lis	-10917
nau	-10918
odr	-10919
rag	-10920
rie	-10921
rim	-10922
sam	-10923
sit	-10924
ste	-10925
ull	-10926
ulz	-10927
vod	-10928
yếu	-10929
ônp	-10930
▁iể	-10931
▁wt	-10932
ayam	-10933
eung	-10934
imit	-10935
inam	-10936
ools	-10937
soso	-10938
tent	-10939
unga	-10940
▁aeo	-10941
▁ale	-10942
▁ann	-10943
▁but	-10944
▁cau	-10945
▁châ	-10946
▁chã	-10947
▁ché	-10948
▁chò	-10949
▁chô	-10950
▁chù	-10951
▁chă	-10952
▁chơ	-10953
▁chạ	-10954
▁chấ	-10955
▁chầ	-10956
▁chẩ	-10957
▁chậ	-10958
▁chắ	-10959
▁chằ	-10960
▁chẳ	-10961
▁chặ	-10962
▁chọ	-10963
▁chỏ	-10964
▁chố	-10965
▁chồ	-10966
▁chổ	-10967
▁chộ	-10968
▁chụ	-10969
▁chử	-10970
▁cit	-10971
▁cli	-10972
▁coo	-10973
▁cor	-10974
▁cpt	-10975
▁cri	-10976
▁cuỗ	-10977
▁cuộ	-10978
▁cươ	-10979
▁cướ	-10980
▁cườ	-10981
▁cưỡ	-10982
▁cượ	-10983
▁dan	-10984
▁dat	-10985
▁dav	-10986
▁dem	-10987
▁deo	-10988
▁dew	-10989
▁dha	-10990
▁dia	-10991
▁dis	-10992
▁diệ	-10993
▁dol	-10994
▁dre	-10995
▁dup	-10996
▁dươ	-10997
▁dườ	-10998
▁dưỡ	-10999
aal	-11000
alc	-11001
all	-11002
alt	-11003
bal	-11004
but	-11005
cag	-11006
cks	-11007
dal	-11008
ebo	-11009
fal	-11010
fli	-11011
gac	-11012
hes	-11013
hia	-11014
ial	-11015
lôm	-11016
mal	-11017
ott	-11018
pro	-11019
uật	-11020
uốn	-11021
vak	-11022
val	-11023
yam	-11024
yển	-11025
zal	-11026
zar	-11027
ômé	-11028
▁aw	-11029
adam	-11030
aide	-11031
alan	-11032
anal	-11033
cotl	-11034
emas	-11035
inda	-11036
infa	-11037
inic	-11038
nier	-11039
phic	-11040
pple	-11041
tlin	-11042
vers	-11043
▁bap	-11044
▁bat	-11045
▁coc	-11046
▁cos	-11047
▁cou	-11048
▁cub	-11049
▁cul	-11050
▁cuố	-11051
▁dih	-11052
▁dượ	-11053
▁ema	-11054
▁eme	-11055
▁emi	-11056
▁emo	-11057
▁euc	-11058
▁fak	-11059
▁fib	-11060
▁fiv	-11061
▁fuc	-11062
▁fun	-11063
▁gab	-11064
▁gal	-11065
▁geo	-11066
▁ges	-11067
▁gie	-11068
▁gig	-11069
▁gil	-11070
▁gir	-11071
▁giu	-11072
▁giâ	-11073
▁giù	-11074
▁giú	-11075
▁giũ	-11076
▁giư	-11077
▁giấ	-11078
▁giầ	-11079
▁giậ	-11080
▁giằ	-11081
▁giặ	-11082
▁giế	-11083
▁giề	-11084
▁giọ	-11085
▁giố	-11086
▁giớ	-11087
▁giỡ	-11088
▁giụ	-11089
▁giứ	-11090
▁giự	-11091
▁glo	-11092
▁gog	-11093
▁gok	-11094
▁gon	-11095
▁gov	-11096
▁gri	-11097
▁gươ	-11098
▁gượ	-11099
aeo	-11100
arx	-11101
cin	-11102
eod	-11103
eou	-11104
etb	-11105
geo	-11106
hin	-11107
ieo	-11108
ili	-11109
inc	-11110
ind	-11111
inf	-11112
inw	-11113
jin	-11114
kin	-11115
mus	-11116
neo	-11117
oin	-11118
oặc	-11119
pas	-11120
pin	-11121
tin	-11122
uốc	-11123
vie	-11124
win	-11125
wom	-11126
zeo	-11127
▁ah	-11128
▁oe	-11129
▁oi	-11130
▁ot	-11131
▁ov	-11132
▁oằ	-11133
▁ye	-11134
▁yu	-11135
▁yế	-11136
aloe	-11137
alog	-11138
alop	-11139
cine	-11140
ckic	-11141
elec	-11142
enri	-11143
erum	-11144
esop	-11145
falo	-11146
inai	-11147
inal	-11148
inau	-11149
ineo	-11150
inuy	-11151
itec	-11152
oran	-11153
uống	-11154
▁bud	-11155
▁bum	-11156
▁hab	-11157
▁hah	-11158
▁has	-11159
▁haz	-11160
▁hec	-11161
▁hei	-11162
▁hem	-11163
▁her	-11164
▁hig	-11165
▁hiể	-11166
▁hiệ	-11167
▁hoc	-11168
▁hoe	-11169
▁hoj	-11170
▁hol	-11171
▁hon	-11172
▁hoo	-11173
▁hor	-11174
▁hos	-11175
▁hou	-11176
▁how	-11177
▁hoz	-11178
▁hoã	-11179
▁hoạ	-11180
▁hoả	-11181
▁hoằ	-11182
▁hoặ	-11183
▁huỳ	-11184
▁hyu	-11185
▁hươ	-11186
▁hướ	-11187
▁hườ	-11188
▁iel	-11189
▁ihn	-11190
▁inb	-11191
▁ipe	-11192
▁ira	-11193
▁ise	-11194
▁jam	-11195
▁jos	-11196
▁kao	-11197
▁kay	-11198
▁ken	-11199
bik	-11200
cer	-11201
dom	-11202
eac	-11203
egi	-11204
enb	-11205
eni	-11206
enr	-11207
erp	-11208
iel	-11209
iêm	-11210
iễn	-11211
len	-11212
lot	-11213
men	-11214
mes	-11215
ome	-11216
onb	-11217
oom	-11218
oạt	-11219
oặt	-11220
tto	-11221
uen	-11222
uỗi	-11223
ven	-11224
vil	-11225
zzz	-11226
▁ib	-11227
ades	-11228
anon	-11229
ensl	-11230
isev	-11231
oòng	-11232
pion	-11233
viva	-11234
vost	-11235
▁aid	-11236
▁dom	-11237
▁dor	-11238
▁dou	-11239
▁dov	-11240
▁dow	-11241
▁doã	-11242
▁dri	-11243
▁fuk	-11244
▁khm	-11245
▁khs	-11246
▁khâ	-11247
▁khé	-11248
▁khú	-11249
▁khă	-11250
▁khơ	-11251
▁khạ	-11252
▁khấ	-11253
▁khẩ	-11254
▁khắ	-11255
▁khẳ	-11256
▁khị	-11257
▁khỏ	-11258
▁khớ	-11259
▁khủ	-11260
▁kid	-11261
▁kie	-11262
▁kir	-11263
▁kit	-11264
▁kiw	-11265
▁kiê	-11266
▁kiế	-11267
▁kiề	-11268
▁kiể	-11269
▁kiệ	-11270
▁kiố	-11271
▁kor	-11272
▁kur	-11273
▁lap	-11274
▁lar	-11275
▁lew	-11276
▁lid	-11277
▁lif	-11278
▁lig	-11279
▁lik	-11280
▁lin	-11281
▁lip	-11282
▁lis	-11283
▁liể	-11284
▁liễ	-11285
▁liệ	-11286
▁loé	-11287
▁lub	-11288
▁luc	-11289
▁luk	-11290
▁lus	-11291
▁lut	-11292
▁luy	-11293
▁luẩ	-11294
▁luậ	-11295
▁luồ	-11296
▁lyn	-11297
▁lươ	-11298
▁lướ	-11299
aci	-11300
dit	-11301
eda	-11302
ene	-11303
env	-11304
erb	-11305
erl	-11306
ery	-11307
fen	-11308
her	-11309
ier	-11310
iếm	-11311
iếp	-11312
jen	-11313
jer	-11314
kic	-11315
lec	-11316
onn	-11317
ony	-11318
ovo	-11319
rap	-11320
sel	-11321
sim	-11322
sma	-11323
sra	-11324
wut	-11325
yde	-11326
▁at	-11327
▁av	-11328
▁za	-11329
▁zi	-11330
▁zl	-11331
alad	-11332
aler	-11333
amer	-11334
asak	-11335
ayer	-11336
enic	-11337
eral	-11338
eren	-11339
jira	-11340
kist	-11341
lend	-11342
ngen	-11343
nope	-11344
oren	-11345
oron	-11346
rosh	-11347
uise	-11348
uộng	-11349
▁aer	-11350
▁anj	-11351
▁ans	-11352
▁buf	-11353
▁buý	-11354
▁cel	-11355
▁den	-11356
▁hii	-11357
▁ion	-11358
▁lon	-11359
▁lot	-11360
▁loá	-11361
▁loã	-11362
▁lườ	-11363
▁lưỡ	-11364
▁lượ	-11365
▁mac	-11366
▁mag	-11367
▁mak	-11368
▁maz	-11369
▁mcg	-11370
▁mem	-11371
▁mer	-11372
▁mes	-11373
▁mif	-11374
▁mis	-11375
▁miz	-11376
▁miệ	-11377
▁mob	-11378
▁mom	-11379
▁moo	-11380
▁mub	-11381
▁mun	-11382
▁mus	-11383
▁muỗ	-11384
▁muộ	-11385
▁màđ	-11386
▁mươ	-11387
▁mướ	-11388
▁mườ	-11389
▁mượ	-11390
▁nal	-11391
▁nap	-11392
▁nas	-11393
▁nau	-11394
▁ngá	-11395
▁ngâ	-11396
▁ngò	-11397
▁ngù	-11398
▁ngú	-11399
aho	-11400
akh	-11401
ape	-11402
arg	-11403
arp	-11404
arr	-11405
aru	-11406
arv	-11407
avi	-11408
cto	-11409
cvn	-11410
far	-11411
him	-11412
hoh	-11413
hor	-11414
imp	-11415
ito	-11416
jon	-11417
kar	-11418
ked	-11419
lim	-11420
ods	-11421
old	-11422
ona	-11423
onm	-11424
ons	-11425
oon	-11426
par	-11427
ped	-11428
pim	-11429
sho	-11430
snd	-11431
tco	-11432
tho	-11433
tim	-11434
uầy	-11435
uẩn	-11436
who	-11437
yte	-11438
▁jc	-11439
anno	-11440
ansi	-11441
anus	-11442
aran	-11443
arao	-11444
aron	-11445
char	-11446
elle	-11447
elly	-11448
evel	-11449
ewar	-11450
ffet	-11451
ghin	-11452
iêng	-11453
okat	-11454
onal	-11455
pear	-11456
pink	-11457
quar	-11458
uenc	-11459
▁die	-11460
▁div	-11461
▁diễ	-11462
▁dub	-11463
▁duc	-11464
▁gou	-11465
▁him	-11466
▁hub	-11467
▁mir	-11468
▁miế	-11469
▁ngă	-11470
▁ngạ	-11471
▁ngấ	-11472
▁ngầ	-11473
▁ngẩ	-11474
▁ngẫ	-11475
▁ngậ	-11476
▁ngắ	-11477
▁ngặ	-11478
▁ngọ	-11479
▁ngố	-11480
▁ngồ	-11481
▁ngổ	-11482
▁ngớ	-11483
▁ngợ	-11484
▁ngứ	-11485
▁ngừ	-11486
▁ngử	-11487
▁nhe	-11488
▁nhâ	-11489
▁nhè	-11490
▁nhò	-11491
▁nhõ	-11492
▁nhă	-11493
▁nhạ	-11494
▁nhấ	-11495
▁nhầ	-11496
▁nhẫ	-11497
▁nhậ	-11498
▁nhắ	-11499
ces	-11500
des	-11501
dic	-11502
dor	-11503
epk	-11504
epp	-11505
ese	-11506
esg	-11507
esl	-11508
esp	-11509
esw	-11510
etn	-11511
fes	-11512
fic	-11513
ice	-11514
icl	-11515
icu	-11516
opp	-11517
orl	-11518
orn	-11519
pph	-11520
ppl	-11521
ppr	-11522
res	-11523
ses	-11524
tes	-11525
tic	-11526
tne	-11527
tor	-11528
tpp	-11529
uon	-11530
wor	-11531
xic	-11532
yon	-11533
▁fd	-11534
▁fl	-11535
▁fp	-11536
▁ft	-11537
▁ub	-11538
▁ue	-11539
▁uổ	-11540
amic	-11541
amor	-11542
arri	-11543
atad	-11544
atho	-11545
auvi	-11546
eres	-11547
eron	-11548
esho	-11549
esor	-11550
etth	-11551
icin	-11552
icon	-11553
imon	-11554
mber	-11555
nuch	-11556
onom	-11557
urin	-11558
uter	-11559
vill	-11560
▁bea	-11561
▁fai	-11562
▁fer	-11563
▁fes	-11564
▁haj	-11565
▁hir	-11566
▁hug	-11567
▁inc	-11568
▁int	-11569
▁inv	-11570
▁kno	-11571
▁mic	-11572
▁mid	-11573
▁nej	-11574
▁nes	-11575
▁nhằ	-11576
▁nhặ	-11577
▁nhẻ	-11578
▁nhệ	-11579
▁nhồ	-11580
▁nhộ	-11581
▁nhụ	-11582
▁nhứ	-11583
▁nhự	-11584
▁nig	-11585
▁nil	-11586
▁nin	-11587
▁nis	-11588
▁niệ	-11589
▁nun	-11590
▁nươ	-11591
▁nướ	-11592
▁oec	-11593
▁oht	-11594
▁ole	-11595
▁onl	-11596
▁opp	-11597
▁osc	-11598
▁pan	-11599
ack	-11600
bor	-11601
cel	-11602
del	-11603
elh	-11604
elv	-11605
etc	-11606
etf	-11607
eti	-11608
eto	-11609
etr	-11610
ffl	-11611
gas	-11612
hst	-11613
iad	-11614
iag	-11615
ior	-11616
ket	-11617
net	-11618
ora	-11619
org	-11620
orr	-11621
ors	-11622
ost	-11623
qat	-11624
sbo	-11625
stb	-11626
stc	-11627
stl	-11628
sto	-11629
str	-11630
unt	-11631
urn	-11632
ust	-11633
wel	-11634
xst	-11635
yor	-11636
zel	-11637
▁eb	-11638
▁ec	-11639
▁wb	-11640
advi	-11641
alet	-11642
amst	-11643
anel	-11644
atin	-11645
aust	-11646
cess	-11647
chst	-11648
chul	-11649
doon	-11650
egen	-11651
elan	-11652
elem	-11653
elen	-11654
eles	-11655
elon	-11656
eshi	-11657
etar	-11658
etin	-11659
icel	-11660
inet	-11661
stic	-11662
tern	-11663
▁ado	-11664
▁bel	-11665
▁ear	-11666
▁ein	-11667
▁ido	-11668
▁kel	-11669
▁mel	-11670
▁nel	-11671
▁nut	-11672
▁pas	-11673
▁pel	-11674
▁per	-11675
▁phn	-11676
▁pho	-11677
▁phr	-11678
▁phâ	-11679
▁phé	-11680
▁phò	-11681
▁phă	-11682
▁phơ	-11683
▁phư	-11684
▁phạ	-11685
▁phấ	-11686
▁phầ	-11687
▁phẩ	-11688
▁phẫ	-11689
▁phậ	-11690
▁phẳ	-11691
▁phệ	-11692
▁phị	-11693
▁phồ	-11694
▁phứ	-11695
▁pos	-11696
▁pra	-11697
▁pri	-11698
▁put	-11699
atl	-11700
bat	-11701
ckg	-11702
ckh	-11703
cki	-11704
dvi	-11705
eck	-11706
hat	-11707
nec	-11708
nef	-11709
nex	-11710
ovi	-11711
rip	-11712
roa	-11713
roi	-11714
rop	-11715
rot	-11716
rou	-11717
rtl	-11718
shw	-11719
tla	-11720
uck	-11721
udi	-11722
ush	-11723
viv	-11724
▁ih	-11725
▁iv	-11726
▁wh	-11727
aine	-11728
andr	-11729
anke	-11730
arne	-11731
arro	-11732
chno	-11733
chvi	-11734
ckch	-11735
cter	-11736
elhi	-11737
ened	-11738
estl	-11739
hine	-11740
hiro	-11741
hone	-11742
inea	-11743
nter	-11744
onna	-11745
rank	-11746
stro	-11747
teri	-11748
terp	-11749
tine	-11750
tles	-11751
zech	-11752
▁goj	-11753
▁gol	-11754
▁got	-11755
▁gro	-11756
▁lav	-11757
▁laz	-11758
▁lil	-11759
▁mab	-11760
▁mck	-11761
▁nix	-11762
▁qat	-11763
▁que	-11764
▁quâ	-11765
▁quã	-11766
▁qué	-11767
▁quă	-11768
▁quạ	-11769
▁quấ	-11770
▁quầ	-11771
▁quẩ	-11772
▁quẫ	-11773
▁quậ	-11774
▁quắ	-11775
▁quặ	-11776
▁quẹ	-11777
▁quố	-11778
▁quớ	-11779
▁rad	-11780
▁raf	-11781
▁rah	-11782
▁ran	-11783
▁ras	-11784
▁reg	-11785
▁rei	-11786
▁ric	-11787
▁ris	-11788
▁riê	-11789
▁roa	-11790
▁rod	-11791
▁rog	-11792
▁roh	-11793
▁rol	-11794
▁rom	-11795
▁ros	-11796
▁rou	-11797
▁rov	-11798
▁rub	-11799
bbi	-11800
dad	-11801
gra	-11802
gri	-11803
ile	-11804
ira	-11805
jok	-11806
kok	-11807
las	-11808
lle	-11809
loa	-11810
nle	-11811
odt	-11812
ole	-11813
olo	-11814
ook	-11815
pra	-11816
rac	-11817
rib	-11818
rig	-11819
rit	-11820
riz	-11821
sou	-11822
tok	-11823
ula	-11824
uok	-11825
wro	-11826
yri	-11827
amil	-11828
arlo	-11829
aulo	-11830
aura	-11831
bama	-11832
egra	-11833
ello	-11834
enbo	-11835
erga	-11836
esra	-11837
etlo	-11838
hing	-11839
inga	-11840
ingf	-11841
ingh	-11842
ingi	-11843
liff	-11844
list	-11845
loom	-11846
orro	-11847
ping	-11848
qing	-11849
roth	-11850
roun	-11851
solo	-11852
spit	-11853
ting	-11854
upro	-11855
▁gra	-11856
▁kri	-11857
▁ruu	-11858
▁rươ	-11859
▁rướ	-11860
▁rườ	-11861
▁rượ	-11862
▁sac	-11863
▁sag	-11864
▁sal	-11865
▁sar	-11866
▁sev	-11867
▁she	-11868
▁sil	-11869
▁sis	-11870
▁siz	-11871
▁soa	-11872
▁soc	-11873
▁sof	-11874
▁sor	-11875
▁sou	-11876
▁sov	-11877
▁soá	-11878
▁sss	-11879
▁sta	-11880
▁ste	-11881
▁sto	-11882
▁str	-11883
▁stu	-11884
▁sty	-11885
▁sub	-11886
▁suc	-11887
▁suk	-11888
▁sul	-11889
▁sur	-11890
▁sus	-11891
▁suw	-11892
▁suz	-11893
▁suý	-11894
▁sươ	-11895
▁sướ	-11896
▁sườ	-11897
▁taj	-11898
▁tak	-11899
ase	-11900
atk	-11901
ato	-11902
atr	-11903
cit	-11904
cur	-11905
eas	-11906
eat	-11907
fut	-11908
git	-11909
iat	-11910
ild	-11911
isi	-11912
kip	-11913
lut	-11914
mod	-11915
nit	-11916
odi	-11917
our	-11918
pit	-11919
put	-11920
qas	-11921
tod	-11922
urf	-11923
uti	-11924
utt	-11925
yas	-11926
zym	-11927
alit	-11928
amas	-11929
amur	-11930
anta	-11931
apho	-11932
arat	-11933
atan	-11934
atay	-11935
bale	-11936
cale	-11937
chia	-11938
emek	-11939
epho	-11940
erby	-11941
eria	-11942
esia	-11943
inas	-11944
init	-11945
itch	-11946
lent	-11947
lpho	-11948
nald	-11949
odem	-11950
omat	-11951
onat	-11952
onia	-11953
orit	-11954
phon	-11955
phot	-11956
phou	-11957
renz	-11958
roat	-11959
rysi	-11960
utan	-11961
utur	-11962
uyas	-11963
zale	-11964
▁akk	-11965
▁fas	-11966
▁fur	-11967
▁fut	-11968
▁maf	-11969
▁mas	-11970
▁oll	-11971
▁ons	-11972
▁pit	-11973
▁tap	-11974
▁tar	-11975
▁tas	-11976
▁tav	-11977
▁tax	-11978
▁ter	-11979
▁tes	-11980
▁tex	-11981
▁thp	-11982
▁thá	-11983
▁thâ	-11984
▁thé	-11985
▁thê	-11986
▁thò	-11987
▁thó	-11988
▁thă	-11989
▁thạ	-11990
▁thấ	-11991
▁thầ	-11992
▁thẩ	-11993
▁thậ	-11994
▁thắ	-11995
▁thằ	-11996
▁thẳ	-11997
▁thặ	-11998
▁thẹ	-11999
acm	-12000
aco	-12001
add	-12002
adi	-12003
adl	-12004
bac	-12005
bol	-12006
boo	-12007
bus	-12008
cot	-12009
edv	-12010
epú	-12011
ewc	-12012
ewe	-12013
ewf	-12014
ewi	-12015
ewo	-12016
had	-12017
ibe	-12018
lig	-12019
mad	-12020
ous	-12021
pac	-12022
red	-12023
rus	-12024
tus	-12025
udo	-12026
usi	-12027
xus	-12028
yus	-12029
zad	-12030
acqu	-12031
adem	-12032
akho	-12033
amac	-12034
asco	-12035
eans	-12036
eder	-12037
enca	-12038
erus	-12039
ethi	-12040
ewca	-12041
hion	-12042
hipp	-12043
hist	-12044
indo	-12045
inid	-12046
nand	-12047
npay	-12048
odca	-12049
orad	-12050
rand	-12051
ried	-12052
stco	-12053
urip	-12054
▁alt	-12055
▁ced	-12056
▁nac	-12057
▁nad	-12058
▁ohi	-12059
▁red	-12060
▁sed	-12061
▁sew	-12062
▁sha	-12063
▁spo	-12064
▁thỉ	-12065
▁thố	-12066
▁thừ	-12067
▁tig	-12068
▁tik	-12069
▁tit	-12070
▁tiv	-12071
▁tiê	-12072
▁tiề	-12073
▁tiể	-12074
▁tiễ	-12075
▁tiệ	-12076
▁tod	-12077
▁tok	-12078
▁ton	-12079
▁tos	-12080
▁tot	-12081
▁tou	-12082
▁tow	-12083
▁toy	-12084
▁toà	-12085
▁toá	-12086
▁tpb	-12087
▁trá	-12088
▁trâ	-12089
▁trè	-12090
▁tré	-12091
▁trê	-12092
▁tró	-12093
▁trô	-12094
▁tră	-12095
▁trĩ	-12096
▁trơ	-12097
▁trư	-12098
▁trạ	-12099
akp	-12100
aks	-12101
aku	-12102
cil	-12103
cis	-12104
dil	-12105
dte	-12106
eaz	-12107
edd	-12108
edh	-12109
eed	-12110
eil	-12111
eph	-12112
fgh	-12113
ied	-12114
ife	-12115
ils	-12116
lid	-12117
liv	-12118
lla	-12119
mol	-12120
olt	-12121
pte	-12122
ryl	-12123
sea	-12124
sig	-12125
yak	-12126
ymp	-12127
aity	-12128
akar	-12129
anak	-12130
arak	-12131
aris	-12132
arli	-12133
artt	-12134
artu	-12135
chko	-12136
cial	-12137
eatl	-12138
entr	-12139
eris	-12140
ersi	-12141
esli	-12142
este	-12143
icta	-12144
ijij	-12145
inte	-12146
ldom	-12147
llet	-12148
onte	-12149
orld	-12150
ound	-12151
righ	-12152
roso	-12153
tenh	-12154
uent	-12155
▁ama	-12156
▁gak	-12157
▁hyb	-12158
▁hyd	-12159
▁not	-12160
▁nou	-12161
▁trấ	-12162
▁trầ	-12163
▁trậ	-12164
▁trắ	-12165
▁trặ	-12166
▁trể	-12167
▁trỏ	-12168
▁trố	-12169
▁trỗ	-12170
▁trờ	-12171
▁tuc	-12172
▁tur	-12173
▁tuý	-12174
▁tuấ	-12175
▁tuế	-12176
▁tuố	-12177
▁typ	-12178
▁tyr	-12179
▁tys	-12180
▁tươ	-12181
▁tướ	-12182
▁tườ	-12183
▁tưở	-12184
▁tưỡ	-12185
▁tượ	-12186
▁ukr	-12187
▁une	-12188
▁uni	-12189
▁vac	-12190
▁vel	-12191
▁ver	-12192
▁ves	-12193
▁via	-12194
▁vid	-12195
▁vie	-12196
▁vik	-12197
▁vio	-12198
▁vis	-12199
bbe	-12200
bun	-12201
dre	-12202
eun	-12203
fog	-12204
ire	-12205
map	-12206
npt	-12207
ptq	-12208
taf	-12209
taj	-12210
tre	-12211
ube	-12212
una	-12213
unc	-12214
ymy	-12215
zbe	-12216
amun	-12217
auto	-12218
bola	-12219
ella	-12220
eppe	-12221
erev	-12222
esti	-12223
ever	-12224
gist	-12225
hire	-12226
lack	-12227
last	-12228
lavi	-12229
lfer	-12230
luec	-12231
mest	-12232
onmo	-12233
ptur	-12234
rait	-12235
rest	-12236
reun	-12237
rune	-12238
shin	-12239
tion	-12240
ulit	-12241
umit	-12242
▁arn	-12243
▁ass	-12244
▁gre	-12245
▁jap	-12246
▁jum	-12247
▁kev	-12248
▁mol	-12249
▁mov	-12250
▁moz	-12251
▁myt	-12252
▁oun	-12253
▁sab	-12254
▁sap	-12255
▁sav	-12256
▁vit	-12257
▁viv	-12258
▁viz	-12259
▁viê	-12260
▁viế	-12261
▁viể	-12262
▁vlo	-12263
▁vne	-12264
▁vou	-12265
▁vov	-12266
▁vsi	-12267
▁vum	-12268
▁vươ	-12269
▁vướ	-12270
▁vườ	-12271
▁vượ	-12272
▁was	-12273
▁wat	-12274
▁wel	-12275
▁wen	-12276
▁wit	-12277
▁wom	-12278
▁wur	-12279
▁xiề	-12280
▁xiể	-12281
▁xoá	-12282
▁xuy	-12283
▁xuý	-12284
▁xuẩ	-12285
▁xươ	-12286
▁xướ	-12287
▁yad	-12288
▁yal	-12289
▁yam	-12290
▁yan	-12291
▁yar	-12292
▁yas	-12293
▁yea	-12294
▁yem	-12295
▁yog	-12296
▁yor	-12297
▁yur	-12298
▁yut	-12299
agr	-12300
cry	-12301
dna	-12302
ebb	-12303
ebs	-12304
iff	-12305
izz	-12306
ndh	-12307
obi	-12308
rts	-12309
ryn	-12310
sbi	-12311
soc	-12312
sof	-12313
sul	-12314
uff	-12315
wag	-12316
yag	-12317
ynd	-12318
amah	-12319
arkt	-12320
arry	-12321
bien	-12322
biqu	-12323
cean	-12324
cied	-12325
ebut	-12326
edex	-12327
elln	-12328
ells	-12329
exic	-12330
ffit	-12331
hina	-12332
iato	-12333
inaw	-12334
kina	-12335
lina	-12336
llag	-12337
outi	-12338
saka	-12339
sera	-12340
urto	-12341
vell	-12342
vert	-12343
vono	-12344
▁asm	-12345
▁boe	-12346
▁erl	-12347
▁gag	-12348
▁leb	-12349
▁lex	-12350
▁olg	-12351
▁unc	-12352
▁und	-12353
▁unm	-12354
▁vol	-12355
▁zan	-12356
▁zap	-12357
▁zer	-12358
▁đic	-12359
▁điê	-12360
▁điế	-12361
▁điề	-12362
▁điể	-12363
▁điệ	-12364
▁đươ	-12365
▁đườ	-12366
▁đượ	-12367
acill	-12368
adama	-12369
agram	-12370
ainal	-12371
akart	-12372
akhov	-12373
alaya	-12374
alest	-12375
alist	-12376
ality	-12377
allow	-12378
alogo	-12379
alysi	-12380
ament	-12381
aming	-12382
analo	-12383
anano	-12384
anfor	-12385
angel	-12386
angen	-12387
aniil	-12388
anist	-12389
antam	-12390
antar	-12391
antin	-12392
apori	-12393
arach	-12394
arane	-12395
arina	-12396
aring	-12397
armol	-12398
arter	-12399
ega	-12400
gab	-12401
gaz	-12402
kov	-12403
luk	-12404
olv	-12405
oly	-12406
oth	-12407
ovy	-12408
sek	-12409
tif	-12410
tiè	-12411
uik	-12412
zop	-12413
audi	-12414
dani	-12415
ecom	-12416
egid	-12417
etti	-12418
gger	-12419
hics	-12420
ider	-12421
jkow	-12422
loth	-12423
ntel	-12424
orth	-12425
rali	-12426
ramo	-12427
shch	-12428
tafe	-12429
ther	-12430
tide	-12431
ttom	-12432
ture	-12433
ukov	-12434
yber	-12435
▁box	-12436
▁boy	-12437
▁edw	-12438
▁gav	-12439
▁gaz	-12440
▁joh	-12441
▁kop	-12442
▁vnn	-12443
alcom	-12444
aniel	-12445
artte	-12446
artup	-12447
atada	-12448
atist	-12449
ature	-12450
aucas	-12451
ayaan	-12452
ayson	-12453
ayter	-12454
bbank	-12455
beano	-12456
bertr	-12457
chano	-12458
chcom	-12459
chine	-12460
cking	-12461
ckson	-12462
cover	-12463
ctech	-12464
cting	-12465
dbank	-12466
ebank	-12467
ebook	-12468
echno	-12469
echvi	-12470
egend	-12471
ekong	-12472
elang	-12473
eline	-12474
ellat	-12475
ellon	-12476
elpay	-12477
emens	-12478
enber	-12479
enbur	-12480
enter	-12481
entim	-12482
entin	-12483
entre	-12484
entus	-12485
enzem	-12486
enzop	-12487
enzym	-12488
erard	-12489
erber	-12490
erenc	-12491
erman	-12492
ermar	-12493
ernau	-12494
erson	-12495
erter	-12496
esort	-12497
estli	-12498
estre	-12499
aby	-12500
byl	-12501
dge	-12502
gie	-12503
lsh	-12504
meg	-12505
nos	-12506
spo	-12507
tye	-12508
ude	-12509
ugu	-12510
aomi	-12511
arby	-12512
arik	-12513
atty	-12514
ayde	-12515
aygo	-12516
bson	-12517
denh	-12518
eagu	-12519
egac	-12520
egam	-12521
epri	-12522
etpo	-12523
etty	-12524
fend	-12525
inse	-12526
kson	-12527
lved	-12528
nolo	-12529
orsh	-12530
poin	-12531
shat	-12532
shim	-12533
undl	-12534
ôgam	-12535
▁mct	-12536
▁qas	-12537
▁veg	-12538
▁vep	-12539
▁wik	-12540
▁zik	-12541
amens	-12542
arend	-12543
autam	-12544
ayama	-12545
cienc	-12546
eague	-12547
ebble	-12548
edved	-12549
elens	-12550
etics	-12551
etnam	-12552
eward	-12553
ffalo	-12554
fline	-12555
group	-12556
hiper	-12557
ibank	-12558
icine	-12559
ikist	-12560
iland	-12561
ilter	-12562
imani	-12563
imble	-12564
imitz	-12565
iness	-12566
ingap	-12567
ingfi	-12568
ingra	-12569
inhan	-12570
inhom	-12571
inked	-12572
ional	-12573
istic	-12574
itect	-12575
itter	-12576
lackp	-12577
layer	-12578
liver	-12579
lobal	-12580
lodym	-12581
manne	-12582
menia	-12583
ngent	-12584
obook	-12585
odern	-12586
oking	-12587
olson	-12588
omber	-12589
omist	-12590
onist	-12591
oodto	-12592
orama	-12593
orest	-12594
ority	-12595
orman	-12596
orter	-12597
outub	-12598
pbank	-12599
fir	-12600
ivk	-12601
kow	-12602
oow	-12603
pio	-12604
vei	-12605
wsk	-12606
yce	-12607
yiv	-12608
bspo	-12609
dape	-12610
ecil	-12611
eigh	-12612
eiro	-12613
fiel	-12614
kino	-12615
ksho	-12616
ksnd	-12617
luet	-12618
owsk	-12619
port	-12620
rown	-12621
swat	-12622
tche	-12623
thon	-12624
tino	-12625
wnlo	-12626
ynle	-12627
▁clu	-12628
▁esc	-12629
▁esp	-12630
▁esw	-12631
▁iow	-12632
▁jav	-12633
▁sec	-12634
atric	-12635
bland	-12636
caraz	-12637
estiv	-12638
hamov	-12639
inbur	-12640
luenc	-12641
mbert	-12642
oamic	-12643
ortbi	-12644
pedia	-12645
phics	-12646
phous	-12647
pions	-12648
press	-12649
ptist	-12650
quanh	-12651
rabia	-12652
radam	-12653
radic	-12654
raine	-12655
ralia	-12656
ranha	-12657
rapay	-12658
razil	-12659
reund	-12660
ricar	-12661
riend	-12662
rigue	-12663
ringi	-12664
risti	-12665
round	-12666
runei	-12667
sabel	-12668
sbook	-12669
siana	-12670
socia	-12671
spisi	-12672
stens	-12673
sterc	-12674
sterd	-12675
steri	-12676
sters	-12677
stian	-12678
tamun	-12679
tario	-12680
techn	-12681
teria	-12682
terol	-12683
terpo	-12684
thern	-12685
tions	-12686
tless	-12687
tmund	-12688
tonio	-12689
uardo	-12690
uchia	-12691
ucker	-12692
ukina	-12693
ukong	-12694
ukuok	-12695
uling	-12696
ulitz	-12697
umbia	-12698
umbus	-12699
dmi	-12700
ift	-12701
mob	-12702
mos	-12703
nbu	-12704
ctor	-12705
ctus	-12706
dman	-12707
eont	-12708
geon	-12709
gies	-12710
gond	-12711
ield	-12712
lect	-12713
lyer	-12714
oley	-12715
oroc	-12716
pros	-12717
riya	-12718
rugu	-12719
▁kly	-12720
▁spr	-12721
alley	-12722
arros	-12723
bscri	-12724
eveld	-12725
illin	-12726
inden	-12727
inten	-12728
limet	-12729
ragon	-12730
retth	-12731
rosim	-12732
tanic	-12733
umite	-12734
ungar	-12735
unter	-12736
usion	-12737
utant	-12738
uters	-12739
ution	-12740
vdiiv	-12741
vergr	-12742
versi	-12743
veter	-12744
wagen	-12745
xstay	-12746
ybert	-12747
ynlee	-12748
zambi	-12749
▁acry	-12750
▁acti	-12751
▁afgh	-12752
▁agen	-12753
▁airl	-12754
▁aloi	-12755
▁alop	-12756
▁alph	-12757
▁amac	-12758
▁amag	-12759
▁amra	-12760
▁amst	-12761
▁anan	-12762
▁andr	-12763
▁anfi	-12764
▁anho	-12765
▁anni	-12766
▁anto	-12767
▁appl	-12768
▁arch	-12769
▁aren	-12770
▁arno	-12771
▁audi	-12772
▁aust	-12773
▁baek	-12774
▁baem	-12775
▁bara	-12776
▁beau	-12777
▁beck	-12778
▁benf	-12779
▁benj	-12780
▁benk	-12781
▁berg	-12782
▁berl	-12783
▁biss	-12784
▁boon	-12785
▁brid	-12786
▁brit	-12787
▁brun	-12788
▁bruy	-12789
▁bund	-12790
▁butt	-12791
▁cali	-12792
▁camb	-12793
▁camp	-12794
▁cana	-12795
▁cann	-12796
▁canv	-12797
▁canx	-12798
▁capt	-12799
adip	-12800
adiy	-12801
ahoo	-12802
atko	-12803
cill	-12804
dade	-12805
derg	-12806
dill	-12807
eaza	-12808
effl	-12809
enko	-12810
eorg	-12811
ikaw	-12812
iyas	-12813
made	-12814
ners	-12815
oowa	-12816
rder	-12817
reth	-12818
runs	-12819
show	-12820
ucci	-12821
vika	-12822
zhia	-12823
▁bka	-12824
▁byz	-12825
▁cir	-12826
▁swa	-12827
▁ult	-12828
apdra	-12829
eight	-12830
eorge	-12831
ergus	-12832
ersbi	-12833
gital	-12834
lasta	-12835
nance	-12836
onder	-12837
riyak	-12838
romat	-12839
ttenh	-12840
watin	-12841
▁abhi	-12842
▁ango	-12843
▁barb	-12844
▁carb	-12845
▁casp	-12846
▁cast	-12847
▁chal	-12848
▁cham	-12849
▁chel	-12850
▁ches	-12851
▁chic	-12852
▁chil	-12853
▁chis	-12854
▁chiê	-12855
▁chiế	-12856
▁chiể	-12857
▁chon	-12858
▁chot	-12859
▁choá	-12860
▁choạ	-12861
▁choắ	-12862
▁chri	-12863
▁chươ	-12864
▁chướ	-12865
▁chượ	-12866
▁chịp	-12867
▁cien	-12868
▁cirr	-12869
▁clic	-12870
▁coch	-12871
▁cock	-12872
▁cola	-12873
▁colo	-12874
▁comm	-12875
▁conc	-12876
▁conf	-12877
▁conn	-12878
▁cono	-12879
▁conv	-12880
▁coro	-12881
▁cosm	-12882
▁coup	-12883
▁cour	-12884
▁covi	-12885
▁cred	-12886
▁cret	-12887
▁crim	-12888
▁dapp	-12889
▁davi	-12890
▁delv	-12891
▁desi	-12892
▁dica	-12893
▁dies	-12894
▁divi	-12895
▁djer	-12896
▁djok	-12897
▁dong	-12898
▁doud	-12899
axy	-12900
eyh	-12901
abio	-12902
achi	-12903
aroo	-12904
azak	-12905
enny	-12906
neso	-12907
ooth	-12908
wles	-12909
xxon	-12910
▁veh	-12911
akmap	-12912
alvad	-12913
amala	-12914
asaki	-12915
croso	-12916
enron	-12917
exico	-12918
ghini	-12919
nopes	-12920
ollow	-12921
pears	-12922
retty	-12923
rispr	-12924
solog	-12925
souri	-12926
stein	-12927
thony	-12928
uvell	-12929
xonmo	-12930
úlved	-12931
▁cruz	-12932
▁drac	-12933
▁drap	-12934
▁duco	-12935
▁eart	-12936
▁econ	-12937
▁edit	-12938
▁edte	-12939
▁eiff	-12940
▁eili	-12941
▁emai	-12942
▁emer	-12943
▁emil	-12944
▁enri	-12945
▁eric	-12946
▁even	-12947
▁exci	-12948
▁fanp	-12949
▁figh	-12950
▁fili	-12951
▁fior	-12952
▁flic	-12953
▁flor	-12954
▁forb	-12955
▁form	-12956
▁fram	-12957
▁fran	-12958
▁frid	-12959
▁fron	-12960
▁gala	-12961
▁gard	-12962
▁genn	-12963
▁ghan	-12964
▁giro	-12965
▁gius	-12966
▁giươ	-12967
▁giườ	-12968
▁glor	-12969
▁golo	-12970
▁goog	-12971
▁goth	-12972
▁goua	-12973
▁gran	-12974
▁gron	-12975
▁guid	-12976
▁gull	-12977
▁haal	-12978
▁hait	-12979
▁haiz	-12980
▁hand	-12981
▁hank	-12982
▁hano	-12983
▁harc	-12984
▁harv	-12985
▁hass	-12986
▁heal	-12987
▁heim	-12988
▁hiiv	-12989
▁hitl	-12990
▁hold	-12991
▁holl	-12992
▁hond	-12993
▁hori	-12994
▁hosh	-12995
▁hotl	-12996
▁hous	-12997
▁hout	-12998
▁huaw	-12999
ansf	-13000
lair	-13001
llyw	-13002
prio	-13003
tvia	-13004
urfo	-13005
wana	-13006
ymyr	-13007
yzen	-13008
zbek	-13009
▁apc	-13010
▁csg	-13011
ative	-13012
ckgro	-13013
cliff	-13014
eaper	-13015
ekker	-13016
endou	-13017
ensis	-13018
ermod	-13019
ffith	-13020
grand	-13021
greth	-13022
inica	-13023
injam	-13024
insey	-13025
kkoku	-13026
lavia	-13027
lisic	-13028
nheim	-13029
onbin	-13030
orado	-13031
padvi	-13032
redit	-13033
rysie	-13034
shati	-13035
ssoso	-13036
sukum	-13037
tomin	-13038
uijij	-13039
varez	-13040
xford	-13041
▁aeri	-13042
▁atai	-13043
▁batd	-13044
▁clas	-13045
▁clau	-13046
▁funi	-13047
▁hocm	-13048
▁horm	-13049
▁hubs	-13050
▁huyc	-13051
▁hyor	-13052
▁hyun	-13053
▁imit	-13054
▁inbo	-13055
▁inci	-13056
▁inde	-13057
▁indi	-13058
▁indo	-13059
▁ineo	-13060
▁infl	-13061
▁inst	-13062
▁invi	-13063
▁ipho	-13064
▁irel	-13065
▁ishi	-13066
▁isra	-13067
▁ital	-13068
▁ivan	-13069
▁jopp	-13070
▁jose	-13071
▁juli	-13072
▁juni	-13073
▁kaip	-13074
▁kang	-13075
▁keng	-13076
▁khal	-13077
▁khiê	-13078
▁khiế	-13079
▁khiề	-13080
▁khiể	-13081
▁khoé	-13082
▁khoă	-13083
▁khoả	-13084
▁khoắ	-13085
▁khss	-13086
▁khuẩ	-13087
▁khuế	-13088
▁khươ	-13089
▁kien	-13090
▁koen	-13091
▁koep	-13092
▁konk	-13093
▁kuon	-13094
▁kyus	-13095
▁lamb	-13096
▁lapt	-13097
▁leer	-13098
▁lenn	-13099
xcơ	-13100
acms	-13101
coln	-13102
ctob	-13103
dzan	-13104
gdad	-13105
haky	-13106
lher	-13107
pelh	-13108
tièr	-13109
ugar	-13110
vkin	-13111
zuik	-13112
▁déb	-13113
▁jej	-13114
ademy	-13115
adesh	-13116
cilas	-13117
dgers	-13118
ethir	-13119
gondw	-13120
hirty	-13121
kuman	-13122
lenge	-13123
limex	-13124
ommun	-13125
ornia	-13126
regor	-13127
renzo	-13128
shevi	-13129
zolin	-13130
▁bilb	-13131
▁ecoc	-13132
▁hojl	-13133
▁hunm	-13134
▁jaco	-13135
▁leon	-13136
▁leop	-13137
▁ligh	-13138
▁limi	-13139
▁lizz	-13140
▁lond	-13141
▁loui	-13142
▁louv	-13143
▁luck	-13144
▁lyri	-13145
▁lêni	-13146
▁maci	-13147
▁madn	-13148
▁magu	-13149
▁main	-13150
▁mais	-13151
▁mand	-13152
▁manu	-13153
▁marg	-13154
▁mari	-13155
▁maro	-13156
▁marv	-13157
▁mast	-13158
▁mauv	-13159
▁mavi	-13160
▁mcan	-13161
▁mede	-13162
▁ment	-13163
▁meto	-13164
▁miam	-13165
▁mich	-13166
▁mifu	-13167
▁mili	-13168
▁mill	-13169
▁mind	-13170
▁minn	-13171
▁mizu	-13172
▁mobi	-13173
▁modr	-13174
▁molc	-13175
▁mooc	-13176
▁moor	-13177
▁morg	-13178
▁mori	-13179
▁mozz	-13180
▁myan	-13181
▁mátx	-13182
▁naat	-13183
▁need	-13184
▁neil	-13185
▁netf	-13186
▁newf	-13187
▁ngan	-13188
▁nghè	-13189
▁nghê	-13190
▁nghì	-13191
▁nghẹ	-13192
▁nghẽ	-13193
▁ngoá	-13194
▁ngoạ	-13195
▁ngươ	-13196
▁ngướ	-13197
▁ngượ	-13198
▁nhiê	-13199
arren	-13200
etrol	-13201
jiraw	-13202
olves	-13203
tacms	-13204
tcoin	-13205
ugarn	-13206
uprof	-13207
urtow	-13208
yager	-13209
▁akar	-13210
▁nhiế	-13211
▁nhiễ	-13212
▁nhiệ	-13213
▁nhuy	-13214
▁nhuộ	-13215
▁nhưi	-13216
▁nhườ	-13217
▁nhượ	-13218
▁nich	-13219
▁niel	-13220
▁niss	-13221
▁nost	-13222
▁obat	-13223
▁okin	-13224
▁oliv	-13225
▁olym	-13226
▁palm	-13227
▁part	-13228
▁past	-13229
▁peac	-13230
▁penc	-13231
▁perc	-13232
▁phil	-13233
▁phiệ	-13234
▁phry	-13235
▁phươ	-13236
▁phướ	-13237
▁phườ	-13238
▁phượ	-13239
▁piet	-13240
▁piqu	-13241
▁pizz	-13242
▁poin	-13243
▁poly	-13244
▁pors	-13245
▁posp	-13246
▁prem	-13247
▁pren	-13248
▁pres	-13249
▁prim	-13250
▁pris	-13251
▁prof	-13252
▁prop	-13253
▁quec	-13254
▁ques	-13255
▁quyệ	-13256
▁rafa	-13257
▁rand	-13258
▁rang	-13259
▁raph	-13260
▁rapp	-13261
▁rapt	-13262
▁rasm	-13263
▁rata	-13264
▁ratc	-13265
▁reel	-13266
▁reik	-13267
▁rese	-13268
▁revi	-13269
▁rich	-13270
▁road	-13271
▁robo	-13272
▁roll	-13273
▁rone	-13274
▁ronn	-13275
▁ront	-13276
▁rosi	-13277
▁rout	-13278
▁rubi	-13279
▁ryom	-13280
▁sabe	-13281
▁sabu	-13282
▁saig	-13283
▁salo	-13284
▁sams	-13285
▁sand	-13286
▁sanh	-13287
▁sank	-13288
▁sapp	-13289
▁saud	-13290
▁savi	-13291
▁sche	-13292
▁scho	-13293
▁scot	-13294
▁sear	-13295
▁sens	-13296
▁sent	-13297
▁sepú	-13298
▁serb	-13299
▁serg	-13300
▁seri	-13301
▁sete	-13302
▁shad	-13303
▁shak	-13304
▁shep	-13305
▁shim	-13306
▁shoh	-13307
▁sich	-13308
▁silv	-13309
▁simp	-13310
▁sinn	-13311
▁soar	-13312
▁soch	-13313
▁sofy	-13314
▁sole	-13315
▁solv	-13316
▁sout	-13317
▁sovi	-13318
▁spac	-13319
▁spee	-13320
▁stan	-13321
▁sten	-13322
▁stev	-13323
▁stok	-13324
▁stol	-13325
▁ston	-13326
▁stor	-13327
▁stre	-13328
▁stru	-13329
▁stud	-13330
▁stur	-13331
▁succ	-13332
▁sula	-13333
▁summ	-13334
▁suns	-13335
▁suri	-13336
▁swit	-13337
▁tain	-13338
▁tari	-13339
▁tase	-13340
▁tast	-13341
▁tayl	-13342
▁temp	-13343
▁thak	-13344
▁ther	-13345
▁thin	-13346
▁thiê	-13347
▁thiể	-13348
▁thiệ	-13349
▁thod	-13350
▁thom	-13351
▁thur	-13352
▁thuy	-13353
▁thuẫ	-13354
▁thuố	-13355
▁thuộ	-13356
▁thươ	-13357
▁thướ	-13358
▁thườ	-13359
▁thượ	-13360
▁tikt	-13361
▁tnti	-13362
▁toil	-13363
▁topd	-13364
▁topp	-13365
▁toyo	-13366
▁trad	-13367
▁tran	-13368
▁trav	-13369
▁trek	-13370
▁tren	-13371
▁trip	-13372
▁triể	-13373
▁triệ	-13374
▁trot	-13375
▁trum	-13376
▁trus	-13377
▁trươ	-13378
▁trướ	-13379
▁trườ	-13380
▁trượ	-13381
▁tuch	-13382
▁tuyệ	-13383
▁tyre	-13384
▁unes	-13385
▁unic	-13386
▁unit	-13387
▁unlo	-13388
▁uran	-13389
▁usam	-13390
▁vaqu	-13391
▁velo	-13392
▁vien	-13393
▁vieo	-13394
▁vinc	-13395
▁vini	-13396
▁vinm	-13397
▁vinw	-13398
▁viol	-13399
▁viru	-13400
▁visi	-13401
▁vizh	-13402
▁vost	-13403
▁walc	-13404
▁webs	-13405
▁wiki	-13406
▁wild	-13407
▁wora	-13408
▁work	-13409
▁wrai	-13410
▁wurz	-13411
▁wynd	-13412
▁yama	-13413
▁yang	-13414
▁yoch	-13415
▁yout	-13416
▁zamb	-13417
▁zeek	-13418
▁zept	-13419
▁zlat	-13420
▁zver	-13421
accine	-13422
adline	-13423
akarta	-13424
alcomm	-13425
alysis	-13426
amorin	-13427
anakit	-13428
anking	-13429
ansfer	-13430
ansgon	-13431
antine	-13432
anukov	-13433
aogong	-13434
aphone	-13435
araday	-13436
arever	-13437
arters	-13438
ascale	-13439
ashing	-13440
atican	-13441
atista	-13442
bertru	-13443
bienne	-13444
buprof	-13445
cation	-13446
chelle	-13447
chesla	-13448
chstag	-13449
cience	-13450
ckhart	-13451
dapest	-13452
denbur	-13453
dergro	-13454
dition	-13455
drigue	-13456
dzania	-13457
ealand	-13458
echcom	-13459
edding	-13460
ederik	-13461
eliang	-13462
elling	-13463
ellpho	-13464
eminid	-13465
enberg	-13466
enbook	-13467
enedic	-13468
enland	-13469
enqing	-13470
entina	-13471
ention	-13472
entral	-13473
enviet	-13474
eontay	-13475
eratay	-13476
erberg	-13477
ercure	-13478
ernand	-13479
ernard	-13480
ernaux	-13481
ertong	-13482
esliga	-13483
estyle	-13484
etbank	-13485
ewcast	-13486
exilas	-13487
fender	-13488
ferenc	-13489
fermar	-13490
ffline	-13491
future	-13492
gabyte	-13493
gdaddy	-13494
gefest	-13495
gibank	-13496
hamove	-13497
hipper	-13498
histle	-13499
icasso	-13500
ickson	-13501
imited	-13502
inawat	-13503
ineapp	-13504
inette	-13505
inhtam	-13506
intech	-13507
isevic	-13508
itness	-13509
iversi	-13510
kistan	-13511
ktoker	-13512
laming	-13513
layter	-13514
ldings	-13515
lebank	-13516
lester	-13517
lobale	-13518
logies	-13519
napdra	-13520
nglish	-13521
ngroup	-13522
nosoma	-13523
odcast	-13524
ograph	-13525
okator	-13526
ombank	-13527
ongsan	-13528
onista	-13529
ontièr	-13530
onzale	-13531
operat	-13532
outube	-13533
paylay	-13534
ppines	-13535
ptiste	-13536
radict	-13537
raphic	-13538
rayaan	-13539
reamer	-13540
reland	-13541
rettha	-13542
ribank	-13543
ricare	-13544
ricker	-13545
riends	-13546
ringfi	-13547
rivono	-13548
riyakm	-13549
riyank	-13550
ruguay	-13551
scover	-13552
shevik	-13553
shwell	-13554
sights	-13555
sociat	-13556
spital	-13557
ssouri	-13558
stbank	-13559
steatl	-13560
steris	-13561
steron	-13562
strali	-13563
sukumi	-13564
tajkow	-13565
tation	-13566
tcheck	-13567
telpay	-13568
theran	-13569
tidech	-13570
tjiraw	-13571
tphone	-13572
tsbook	-13573
ttoman	-13574
ukuoka	-13575
ulisic	-13576
urfour	-13577
uripol	-13578
uyasha	-13579
verton	-13580
vibank	-13581
vietpo	-13582
witter	-13583
wonder	-13584
xpress	-13585
yngent	-13586
zakhst	-13587
ziland	-13588
▁adblo	-13589
▁agenc	-13590
▁amacc	-13591
▁ameri	-13592
▁amrab	-13593
▁andre	-13594
▁andro	-13595
▁anjad	-13596
▁antif	-13597
▁aquar	-13598
▁arsen	-13599
▁award	-13600
▁babyl	-13601
▁baeks	-13602
▁balad	-13603
▁bambo	-13604
▁bangl	-13605
▁banki	-13606
▁bartl	-13607
▁berun	-13608
▁billi	-13609
▁bloom	-13610
▁bluec	-13611
▁bluet	-13612
▁borsh	-13613
▁brigh	-13614
▁brook	-13615
▁broth	-13616
▁busin	-13617
▁cadmi	-13618
▁calic	-13619
▁calif	-13620
▁camer	-13621
▁campo	-13622
▁canad	-13623
▁canel	-13624
▁capit	-13625
▁capon	-13626
▁caren	-13627
▁carib	-13628
▁carne	-13629
▁carri	-13630
▁cecil	-13631
▁chain	-13632
▁chand	-13633
▁chann	-13634
▁charl	-13635
▁chate	-13636
▁chatn	-13637
▁chatt	-13638
▁chels	-13639
▁chica	-13640
▁chich	-13641
▁chrom	-13642
▁chuan	-13643
▁chuyể	-13644
▁chuyệ	-13645
▁cicic	-13646
▁cloth	-13647
▁cockp	-13648
▁cockt	-13649
▁colen	-13650
▁collè	-13651
▁colom	-13652
▁colum	-13653
▁conce	-13654
▁confi	-13655
▁conne	-13656
▁coron	-13657
▁cosmo	-13658
▁count	-13659
▁cours	-13660
▁croat	-13661
▁cruis	-13662
▁culli	-13663
▁dicap	-13664
▁divit	-13665
▁domin	-13666
▁dortm	-13667
▁dracu	-13668
▁earld	-13669
▁enzym	-13670
▁escri	-13671
▁espor	-13672
▁eswat	-13673
▁eucli	-13674
▁europ	-13675
▁facel	-13676
▁fansi	-13677
▁fashi	-13678
▁fegid	-13679
▁fight	-13680
▁final	-13681
▁finan	-13682
▁fivet	-13683
▁formo	-13684
▁franc	-13685
▁fried	-13686
▁fucso	-13687
▁fuent	-13688
▁gabri	-13689
▁gagni	-13690
▁garet	-13691
▁gatch	-13692
▁georg	-13693
▁giann	-13694
▁gillo	-13695
▁gover	-13696
▁hally	-13697
▁harri	-13698
▁heide	-13699
▁hiroh	-13700
▁hiros	-13701
▁hirun	-13702
▁homed	-13703
▁homeg	-13704
▁hyund	-13705
▁incip	-13706
▁indon	-13707
▁infan	-13708
▁infin	-13709
▁insul	-13710
▁inver	-13711
▁invic	-13712
▁jacqu	-13713
▁janni	-13714
▁jerne	-13715
▁jerus	-13716
▁johnn	-13717
▁jonat	-13718
▁jutan	-13719
▁karao	-13720
▁kazak	-13721
▁khach	-13722
▁kienl	-13723
▁kilom	-13724
▁kilôm	-13725
▁kimon	-13726
▁kitay	-13727
▁laugh	-13728
▁legac	-13729
▁linco	-13730
▁lucay	-13731
▁lukak	-13732
▁lămng	-13733
▁madon	-13734
▁magui	-13735
▁malay	-13736
▁malik	-13737
▁malin	-13738
▁manuk	-13739
▁maput	-13740
▁marat	-13741
▁margo	-13742
▁margr	-13743
▁maril	-13744
▁marin	-13745
▁marri	-13746
▁masat	-13747
▁mcgre	-13748
▁medei	-13749
▁metar	-13750
▁minds	-13751
▁mirin	-13752
▁mitom	-13753
▁mnuch	-13754
▁morik	-13755
▁moriy	-13756
▁moroc	-13757
▁morri	-13758
▁mosco	-13759
▁mswat	-13760
▁mubar	-13761
▁muset	-13762
▁newfo	-13763
▁nguyệ	-13764
▁niger	-13765
▁noval	-13766
▁okina	-13767
▁palet	-13768
▁parad	-13769
▁parkr	-13770
▁penca	-13771
▁penic	-13772
▁phant	-13773
▁phili	-13774
▁phạmo	-13775
▁plina	-13776
▁pospi	-13777
▁premi	-13778
▁prend	-13779
▁profi	-13780
▁rapha	-13781
▁risch	-13782
▁roads	-13783
▁robbi	-13784
▁rober	-13785
▁roger	-13786
▁ronal	-13787
▁rosne	-13788
▁ruble	-13789
▁samur	-13790
▁sarab	-13791
▁savan	-13792
▁scalo	-13793
▁scand	-13794
▁schet	-13795
▁schil	-13796
▁scotl	-13797
▁selec	-13798
▁selto	-13799
▁seneg	-13800
▁sepri	-13801
▁sepúl	-13802
▁serge	-13803
▁shaki	-13804
▁sheff	-13805
▁shimb	-13806
▁shope	-13807
▁shopp	-13808
▁silic	-13809
▁sisen	-13810
▁skino	-13811
▁solut	-13812
▁spayl	-13813
▁spoti	-13814
▁stanf	-13815
▁steff	-13816
▁sturg	-13817
▁styli	-13818
▁sukun	-13819
▁sulaw	-13820
▁sulli	-13821
▁sunri	-13822
▁sunsh	-13823
▁super	-13824
▁takes	-13825
▁talks	-13826
▁tanak	-13827
▁tavat	-13828
▁teleg	-13829
▁telem	-13830
▁teles	-13831
▁temas	-13832
▁testo	-13833
▁thavi	-13834
▁theod	-13835
▁thinp	-13836
▁thode	-13837
▁thptq	-13838
▁tomod	-13839
▁tomor	-13840
▁toshi	-13841
▁tourn	-13842
▁towns	-13843
▁trail	-13844
▁trous	-13845
▁uncon	-13846
▁unman	-13847
▁vehic	-13848
▁vietc	-13849
▁vietg	-13850
▁vietn	-13851
▁viett	-13852
▁vinac	-13853
▁vinam	-13854
▁vinas	-13855
▁vinfa	-13856
▁vinpe	-13857
▁virtu	-13858
▁vitam	-13859
▁vouch	-13860
▁vovin	-13861
▁vtvca	-13862
▁windo	-13863
▁woraw	-13864
▁works	-13865
▁xiaol	-13866
▁xiaoy	-13867
▁yashi	-13868
▁zalop	-13869
achesla	-13870
acillus	-13871
alexand	-13872
alogous	-13873
alvador	-13874
ampions	-13875
ancisco	-13876
andmade	-13877
anistan	-13878
anorama	-13879
antarum	-13880
aporizh	-13881
arachat	-13882
armolen	-13883
artners	-13884
aucasus	-13885
banking	-13886
bscribe	-13887
chelang	-13888
chester	-13889
chitect	-13890
ckinsey	-13891
dexilas	-13892
diobook	-13893
driguez	-13894
edicine	-13895
ellness	-13896
eminids	-13897
enderga	-13898
endoubi	-13899
ensland	-13900
eration	-13901
erguson	-13902
estival	-13903
eyhomes	-13904
hirtyei	-13905
iceland	-13906
ichstag	-13907
ikistan	-13908
imalaya	-13909
inburne	-13910
ingapor	-13911
instein	-13912
intendo	-13913
ionship	-13914
itional	-13915
iversid	-13916
kswagen	-13917
lamingo	-13918
lection	-13919
llywood	-13920
lodymyr	-13921
luencer	-13922
oamicus	-13923
ongbank	-13924
onzalez	-13925
orghini	-13926
ortbike	-13927
outique	-13928
pelherz	-13929
radamus	-13930
raphics	-13931
riffith	-13932
ringien	-13933
riority	-13934
ristens	-13935
ristian	-13936
rivonos	-13937
romatic	-13938
scovery	-13939
shatile	-13940
sterone	-13941
stralia	-13942
tamundi	-13943
technic	-13944
tection	-13945
tenberg	-13946
tominay	-13947
ttenham	-13948
undland	-13949
utantes	-13950
uvelles	-13951
vdiivka	-13952
yngenta	-13953
▁abramo	-13954
▁airway	-13955
▁amagas	-13956
▁americ	-13957
▁amster	-13958
▁angela	-13959
▁argent	-13960
▁arizon	-13961
▁bacill	-13962
▁bacter	-13963
▁bellat	-13964
▁benjam	-13965
▁benzem	-13966
▁benzop	-13967
▁blackp	-13968
▁bungar	-13969
▁byzant	-13970
▁cadill	-13971
▁calist	-13972
▁canaan	-13973
▁carneg	-13974
▁casemi	-13975
▁centim	-13976
▁challe	-13977
▁charli	-13978
▁chilli	-13979
▁chisor	-13980
▁chuanf	-13981
▁collag	-13982
▁collet	-13983
▁confer	-13984
▁coroll	-13985
▁cosmet	-13986
▁counta	-13987
▁djokov	-13988
▁downlo	-13989
▁europi	-13990
▁evergr	-13991
▁faceli	-13992
▁fansip	-13993
▁foodto	-13994
▁fucsov	-13995
▁gennad	-13996
▁giusep	-13997
▁golovk	-13998
▁gronev	-13999
▁hallow	-14000
▁hapros	-14001
▁hinden	-14002
▁hirosh	-14003
▁homest	-14004
▁hungar	-14005
▁indoch	-14006
▁infant	-14007
▁instag	-14008
▁isabel	-14009
▁kakhov	-14010
▁kamens	-14011
▁kanano	-14012
▁kangar	-14013
▁khaldo	-14014
▁kommun	-14015
▁lactob	-14016
▁langen	-14017
▁legend	-14018
▁lifest	-14019
▁limitl	-14020
▁linked	-14021
▁livest	-14022
▁logist	-14023
▁magent	-14024
▁malays	-14025
▁mandal	-14026
▁mangak	-14027
▁market	-14028
▁marrio	-14029
▁marvel	-14030
▁mcanul	-14031
▁medved	-14032
▁minnes	-14033
▁monoch	-14034
▁moonli	-14035
▁narend	-14036
▁nation	-14037
▁nichol	-14038
▁novodo	-14039
▁novost	-14040
▁nutric	-14041
▁palest	-14042
▁patric	-14043
▁petrol	-14044
▁philip	-14045
▁phạmov	-14046
▁player	-14047
▁pulitz	-14048
▁randal	-14049
▁ratcli	-14050
▁resear	-14051
▁sahaky	-14052
▁santia	-14053
▁sapphi	-14054
▁sarabu	-14055
▁scheff	-14056
▁schill	-14057
▁setech	-14058
▁sheffi	-14059
▁shopho	-14060
▁showbi	-14061
▁showro	-14062
▁smartw	-14063
▁socied	-14064
▁solang	-14065
▁soleim	-14066
▁solomo	-14067
▁southg	-14068
▁spayla	-14069
▁starga	-14070
▁superm	-14071
▁swazil	-14072
▁talksp	-14073
▁techno	-14074
▁thodec	-14075
▁tomoda	-14076
▁ukrain	-14077
▁victor	-14078
▁vietcr	-14079
▁vietin	-14080
▁vietlo	-14081
▁vietra	-14082
▁vinash	-14083
▁vinhom	-14084
▁vinwon	-14085
▁vizhin	-14086
▁vuminh	-14087
▁westli	-14088
▁wimble	-14089
▁youtub	-14090
▁zambur	-14091
▁zelens	-14092
acheslav	-14093
acombank	-14094
artphone	-14095
bekistan	-14096
bertruck	-14097
buprofen	-14098
ckerberg	-14099
ckground	-14100
conomist	-14101
eensland	-14102
ernandes	-14103
ikipedia	-14104
inawatra	-14105
inazolin	-14106
ineapple	-14107
jikistan	-14108
lkswagen	-14109
ndesliga	-14110
nexpress	-14111
ontières	-14112
padvisor	-14113
reenland	-14114
riffiths	-14115
ristiano	-14116
riyankar	-14117
rynosoma	-14118
steatlas	-14119
tational	-14120
toinette	-14121
vernance	-14122
vietpost	-14123
xonmobil	-14124
zambique	-14125
▁alexand	-14126
▁banglad	-14127
▁batdong	-14128
▁belling	-14129
▁benedic	-14130
▁blockch	-14131
▁bluetoo	-14132
▁buffalo	-14133
▁califor	-14134
▁cambrid	-14135
▁campuch	-14136
▁cellpho	-14137
▁chatnal	-14138
▁chịpret	-14139
▁colater	-14140
▁connect	-14141
▁contain	-14142
▁convent	-14143
▁counter	-14144
▁deliver	-14145
▁escribe	-14146
▁fiorent	-14147
▁	-14148
n	-14149
h	-14150
i	-14151
t	-14152
c	-14153
g	-14154
a	-14155
m	-14156
đ	-14157
à	-14158
u	-14159
o	-14160
l	-14161
r	-14162
y	-14163
á	-14164
ư	-14165
v	-14166
k	-14167
b	-14168
ô	-14169
p	-14170
ó	-14171
s	-14172
ạ	-14173
e	-14174
ả	-14175
ế	-14176
ì	-14177
d	-14178
ờ	-14179
ị	-14180
ệ	-14181
ê	-14182
â	-14183
ộ	-14184
ấ	-14185
ể	-14186
ố	-14187
ồ	-14188
ớ	-14189
ơ	-14190
ợ	-14191
ề	-14192
ủ	-14193
ậ	-14194
q	-14195
í	-14196
ọ	-14197
ă	-14198
ú	-14199
ầ	-14200
ứ	-14201
?	-14202
x	-14203
ữ	-14204
ự	-14205
ã	-14206
ừ	-14207
ắ	-14208
ở	-14209
ụ	-14210
ò	-14211
ù	-14212
ổ	-14213
ử	-14214
ỉ	-14215
ũ	-14216
ỏ	-14217
ý	-14218
ặ	-14219
ẽ	-14220
ỗ	-14221
é	-14222
ẩ	-14223
ẫ	-14224
ẻ	-14225
ễ	-14226
ằ	-14227
ẹ	-14228
ỡ	-14229
ĩ	-14230
è	-14231
ỹ	-14232
ỳ	-14233
z	-14234
õ	-14235
f	-14236
ẳ	-14237
w	-14238
j	-14239
